{"[PAD]": 0, "[CLS]": 1, "[SEP]": 2, "[UNK]": 3, "!": 328, "\"": 113, "#": 10431, "$": 1629, "%": 207, "&": 947, "'": 108, "(": 1640, ")": 43, "*": 3226, "+": 2744, ",": 6, "-": 12, ".": 4, "/": 73, "0": 288, "1": 134, "2": 176, "3": 246, "4": 306, "5": 245, "6": 401, "7": 406, "8": 398, "9": 466, ":": 35, ";": 131, "<": 41552, "=": 5214, ">": 15698, "?": 116, "@": 1039, "A": 250, "B": 387, "C": 347, "D": 495, "E": 717, "F": 597, "G": 534, "H": 725, "I": 100, "J": 863, "K": 530, "L": 574, "M": 448, "N": 487, "O": 673, "P": 510, "Q": 1864, "R": 500, "S": 104, "T": 565, "U": 791, "V": 846, "W": 771, "X": 1000, "Y": 975, "Z": 1301, "[": 10975, "\\": 37457, "]": 742, "^": 35227, "_": 1215, "`": 12905, "a": 102, "b": 428, "c": 438, "d": 417, "e": 242, "f": 506, "g": 571, "h": 298, "i": 118, "j": 267, "k": 330, "l": 462, "m": 119, "n": 282, "o": 139, "p": 642, "q": 1343, "r": 338, "s": 29, "t": 90, "u": 257, "v": 705, "w": 605, "x": 1178, "y": 219, "z": 329, "{": 45152, "|": 15483, "}": 24303, "~": 34437, "¡": 5543, "¢": 7258, "£": 2469, "¤": 10470, "¥": 8210, "¦": 18164, "§": 6248, "¨": 11423, "©": 15375, "ª": 10278, "«": 4958, "¬": 11582, "®": 2840, "¯": 10965, "°": 7487, "±": 15389, "²": 14292, "³": 15264, "´": 20024, "µ": 8906, "¶": 19002, "·": 18400, "¸": 18537, "¹": 9253, "º": 3070, "»": 2023, "¼": 4394, "½": 10809, "¾": 4726, "¿": 9470, "À": 50093, "Á": 50094, "Â": 4056, "Ã": 3849, "Ä": 649, "Å": 1277, "Æ": 8188, "Ç": 47040, "È": 6163, "É": 35423, "Ê": 38155, "Ë": 43621, "Ì": 44025, "Í": 48254, "Î": 41335, "Ï": 45704, "Ð": 25417, "Ñ": 22063, "Ò": 48561, "Ó": 49013, "Ô": 49077, "Õ": 42088, "Ö": 46030, "×": 42358, "Ø": 21593, "Ù": 26068, "Ú": 46164, "Û": 44148, "Ü": 49786, "Ý": 50011, "Þ": 49944, "ß": 49860, "à": 12798, "á": 1376, "â": 24987, "ã": 48064, "ä": 48753, "å": 42393, "æ": 37127, "ç": 36714, "è": 36484, "é": 41907, "ê": 46873, "ë": 45209, "ì": 43998, "í": 47649, "î": 49190, "ï": 43251, "ð": 49585, "ñ": 50095, "ò": 50096, "ó": 49078, "ô": 49820, "õ": 50097, "ö": 50098, "÷": 50099, "ø": 50100, "ù": 50101, "ú": 50102, "û": 50103, "ü": 50104, "ý": 50105, "þ": 50106, "ÿ": 50107, "Ā": 50108, "ā": 50109, "Ă": 50110, "ă": 50111, "Ą": 50112, "ą": 50113, "Ć": 50114, "ć": 50115, "Ĉ": 50116, "ĉ": 50117, "Ċ": 50118, "ċ": 50119, "Č": 50120, "č": 50121, "Ď": 50122, "ď": 50123, "Đ": 50124, "đ": 50125, "Ē": 50126, "ē": 50127, "Ĕ": 50128, "ĕ": 50129, "Ė": 50130, "ė": 50131, "Ę": 50132, "ę": 50133, "Ě": 50134, "ě": 50135, "Ĝ": 50136, "ĝ": 50137, "Ğ": 50138, "ğ": 50139, "Ġ": 1437, "ġ": 49802, "Ģ": 7471, "ģ": 10172, "Ĥ": 9264, "ĥ": 862, "Ħ": 11936, "ħ": 5782, "Ĩ": 27819, "ĩ": 6382, "Ī": 23133, "ī": 23171, "Ĭ": 27969, "ĭ": 13859, "Į": 14285, "į": 8384, "İ": 12736, "ı": 9357, "Ĳ": 16948, "ĳ": 3602, "Ĵ": 10659, "ĵ": 9085, "Ķ": 10674, "ķ": 15722, "ĸ": 25448, "Ĺ": 6800, "ĺ": 711, "Ļ": 27, "ļ": 15113, "Ľ": 3726, "ľ": 48, "Ŀ": 46, "ŀ": 17772, "Ł": 4333, "ł": 21402, "Ń": 12410, "Ġt": 326, "Ġa": 10, "he": 700, "in": 179, "re": 241, "on": 261, "Ġthe": 5, "er": 254, "Ġs": 579, "at": 415, "Ġw": 885, "Ġo": 1021, "en": 225, "Ġc": 740, "it": 405, "is": 354, "an": 260, "or": 368, "es": 293, "Ġb": 741, "ed": 196, "Ġf": 856, "ing": 154, "Ġp": 181, "ou": 1438, "Ġan": 41, "al": 337, "ar": 271, "Ġto": 7, "Ġm": 475, "Ġof": 9, "Ġin": 11, "Ġd": 385, "Ġh": 1368, "Ġand": 8, "ic": 636, "as": 281, "le": 459, "Ġth": 3553, "ion": 1499, "om": 1075, "ll": 890, "ent": 1342, "Ġn": 295, "Ġl": 784, "st": 620, "Ġre": 769, "ve": 548, "Ġe": 364, "ro": 1001, "ly": 352, "Ġbe": 28, "Ġg": 821, "ĠT": 255, "ct": 3894, "ĠS": 208, "id": 808, "ot": 1242, "ĠI": 38, "ut": 1182, "et": 594, "ĠA": 83, "Ġis": 16, "Ġon": 15, "im": 757, "am": 424, "ow": 1722, "ay": 857, "ad": 625, "se": 1090, "Ġthat": 14, "ĠC": 230, "ig": 1023, "Ġfor": 13, "ac": 1043, "Ġy": 1423, "ver": 2802, "ur": 710, "Ġu": 1717, "ld": 4779, "Ġst": 1690, "ĠM": 256, "'s": 18, "Ġhe": 37, "Ġit": 24, "ation": 1258, "ith": 3432, "ir": 853, "ce": 1755, "Ġyou": 47, "il": 718, "ĠB": 163, "Ġwh": 8401, "ol": 1168, "ĠP": 221, "Ġwith": 19, "Ġ1": 112, "ter": 1334, "ch": 611, "Ġas": 25, "Ġwe": 52, "Ġ(": 36, "nd": 1187, "ill": 1873, "ĠD": 211, "if": 1594, "Ġ2": 132, "ag": 1073, "ers": 268, "ke": 1071, "Ġ\"": 22, "ĠH": 289, "em": 991, "Ġcon": 2764, "ĠW": 305, "ĠR": 248, "her": 1843, "Ġwas": 21, "Ġr": 910, "od": 1630, "ĠF": 274, "ul": 922, "ate": 877, "Ġat": 23, "ri": 1069, "pp": 3807, "ore": 1688, "ĠThe": 20, "Ġse": 842, "us": 687, "Ġpro": 1759, "Ġha": 2489, "um": 783, "Ġare": 32, "Ġde": 263, "ain": 1851, "and": 463, "Ġor": 50, "igh": 8774, "est": 990, "ist": 661, "ab": 873, "rom": 5638, "ĠN": 234, "th": 212, "Ġcom": 3137, "ĠG": 272, "un": 879, "op": 1517, "00": 612, "ĠL": 226, "Ġnot": 45, "ess": 3361, "Ġex": 1931, "Ġv": 748, "res": 1535, "ĠE": 381, "ew": 2753, "ity": 1571, "ant": 927, "Ġby": 30, "el": 523, "os": 366, "ort": 2723, "oc": 1975, "qu": 2253, "Ġfrom": 31, "Ġhave": 33, "Ġsu": 2628, "ive": 2088, "ould": 25513, "Ġsh": 1481, "Ġthis": 42, "nt": 3999, "ra": 763, "pe": 2379, "ight": 5971, "art": 2013, "ment": 1757, "Ġal": 1076, "ust": 4193, "end": 1397, "--": 5579, "all": 1250, "ĠO": 384, "ack": 2990, "Ġch": 1855, "Ġle": 2084, "ies": 918, "red": 2050, "ard": 1120, "âĢ": 17, "out": 995, "ĠJ": 344, "Ġab": 4091, "ear": 4352, "iv": 1879, "ally": 2368, "our": 2126, "ost": 2603, "gh": 4147, "pt": 3320, "Ġpl": 2968, "ast": 1988, "Ġcan": 64, "ak": 677, "ome": 4399, "ud": 1906, "The": 133, "Ġhis": 39, "Ġdo": 109, "Ġgo": 213, "Ġhas": 34, "ge": 1899, "'t": 75, "ĠU": 121, "rou": 8508, "Ġsa": 2241, "Ġj": 1236, "Ġbut": 53, "Ġwor": 45155, "Ġall": 70, "ect": 9041, "Ġk": 449, "ame": 4344, "Ġwill": 40, "ok": 1638, "Ġwhe": 33116, "Ġthey": 51, "ide": 1949, "01": 2663, "ff": 3145, "ich": 1725, "pl": 2911, "ther": 12968, "Ġtr": 2664, "..": 7586, "Ġint": 6979, "ie": 324, "ure": 2407, "age": 1580, "Ġne": 3087, "ial": 2617, "ap": 1115, "ine": 833, "ice": 2463, "Ġme": 162, "Ġout": 66, "ans": 1253, "one": 1264, "ong": 1657, "ions": 2485, "Ġwho": 54, "ĠK": 229, "Ġup": 62, "Ġtheir": 49, "Ġad": 2329, "Ġ3": 155, "Ġus": 201, "ated": 1070, "ous": 1827, "Ġmore": 55, "ue": 1780, "og": 2154, "ĠSt": 312, "ind": 2028, "ike": 4348, "Ġso": 98, "ime": 4235, "per": 1741, ".\"": 72, "ber": 1943, "iz": 1210, "act": 7257, "Ġone": 65, "Ġsaid": 26, "Ġ-": 111, "are": 1322, "Ġyour": 110, "cc": 7309, "ĠTh": 2032, "Ġcl": 3741, "ep": 2462, "ake": 5113, "able": 868, "ip": 1588, "Ġcont": 8541, "Ġwhich": 61, "ia": 493, "Ġim": 4356, "Ġabout": 59, "Ġwere": 58, "very": 5525, "ub": 1792, "Ġhad": 56, "Ġen": 1177, "Ġcomp": 7753, ",\"": 60, "ĠIn": 96, "Ġun": 542, "Ġag": 5951, "ire": 1885, "ace": 4450, "au": 1180, "ary": 1766, "Ġwould": 74, "ass": 2401, "ry": 1506, "ĠâĢ": 44, "cl": 3998, "ook": 6576, "ere": 2816, "so": 2527, "ĠV": 468, "ign": 4932, "ib": 1452, "Ġoff": 160, "Ġte": 3055, "ven": 2987, "ĠY": 854, "ile": 1848, "ose": 3876, "ite": 1459, "orm": 8693, "Ġ201": 21458, "Ġres": 5032, "Ġman": 313, "Ġper": 228, "Ġother": 97, "ord": 3109, "ult": 6070, "Ġbeen": 57, "Ġlike": 101, "ase": 3175, "ance": 2389, "ks": 2258, "ays": 4113, "own": 3355, "ence": 4086, "Ġdis": 2982, "ction": 14970, "Ġany": 143, "Ġapp": 1553, "Ġsp": 2292, "int": 2544, "ress": 5224, "ations": 1635, "ail": 3760, "Ġ4": 204, "ical": 3569, "Ġthem": 106, "Ġher": 69, "ount": 12825, "ĠCh": 732, "Ġar": 4709, "Ġif": 114, "Ġthere": 89, "Ġpe": 3723, "Ġyear": 76, "av": 1469, "Ġmy": 127, "Ġsome": 103, "Ġwhen": 77, "ough": 4894, "ach": 1488, "Ġthan": 87, "ru": 2070, "ond": 2832, "ick": 1758, "Ġover": 81, "vel": 5536, "Ġqu": 2677, "ĊĊ": 50140, "Ġsc": 2850, "reat": 12353, "ree": 5314, "ĠIt": 85, "ound": 9834, "port": 3427, "Ġalso": 67, "Ġpart": 233, "fter": 23782, "Ġkn": 11269, "Ġbec": 44949, "Ġtime": 86, "ens": 1290, "Ġ5": 195, "ople": 28948, "Ġwhat": 99, "Ġno": 117, "du": 6588, "mer": 2089, "ang": 1097, "Ġnew": 92, "----": 44259, "Ġget": 120, "ory": 4405, "ition": 7469, "ings": 1033, "Ġjust": 95, "Ġinto": 88, "Ġ0": 321, "ents": 4189, "ove": 7067, "te": 859, "Ġpeople": 82, "Ġpre": 1198, "Ġits": 63, "Ġrec": 3872, "Ġtw": 11901, "ian": 811, "irst": 17698, "ark": 3994, "ors": 994, "Ġwork": 173, "ade": 1829, "ob": 2413, "Ġshe": 79, "Ġour": 84, "wn": 11538, "ink": 4291, "lic": 5895, "Ġ19": 753, "ĠHe": 91, "ish": 1173, "nder": 10330, "ause": 17498, "Ġhim": 123, "ons": 1790, "Ġ[": 646, "Ġro": 4533, "form": 3899, "ild": 9683, "ates": 1626, "vers": 3697, "Ġonly": 129, "oll": 3937, "Ġspe": 25227, "ck": 2420, "ell": 1641, "amp": 3914, "Ġacc": 7678, "Ġbl": 3089, "ious": 6514, "urn": 8629, "ft": 2543, "ood": 5715, "Ġhow": 141, "hed": 4183, "Ġ'": 128, "Ġafter": 71, "aw": 1584, "Ġatt": 15095, "ov": 1417, "ne": 858, "Ġplay": 310, "erv": 8649, "ict": 11726, "Ġcould": 115, "itt": 2582, "Ġam": 524, "Ġfirst": 78, "Ġ6": 231, "Ġact": 1760, "Ġ$": 68, "ec": 3204, "hing": 8223, "ual": 5564, "ull": 5023, "Ġcomm": 7034, "oy": 2160, "old": 279, "ces": 4643, "ater": 5109, "Ġfe": 10668, "Ġbet": 5673, "we": 1694, "iff": 4822, "Ġtwo": 80, "ock": 3343, "Ġback": 124, ").": 322, "ident": 8009, "Ġunder": 223, "rough": 10344, "sel": 5317, "xt": 11483, "Ġmay": 189, "round": 3431, "Ġpo": 4202, "ph": 3792, "iss": 3006, "Ġdes": 2694, "Ġmost": 144, "Ġdid": 222, "Ġadd": 1606, "ject": 21517, "Ġinc": 5853, "fore": 13364, "Ġpol": 8385, "ont": 2533, "Ġagain": 456, "clud": 47902, "tern": 18995, "Ġknow": 216, "Ġneed": 240, "Ġcons": 7407, "Ġco": 1029, "Ġ.": 479, "Ġwant": 236, "Ġsee": 192, "Ġ7": 262, "ning": 3509, "iew": 19420, "ĠThis": 152, "ced": 7618, "Ġeven": 190, "Ġind": 9473, "ty": 2553, "ĠWe": 166, "ath": 2681, "Ġthese": 209, "Ġpr": 3349, "Ġuse": 304, "Ġbecause": 142, "Ġfl": 2342, "ng": 2590, "Ġnow": 122, "ĠâĢĵ": 126, "com": 175, "ise": 1496, "Ġmake": 146, "Ġthen": 172, "ower": 8285, "Ġevery": 358, "ĠUn": 1890, "Ġsec": 15636, "oss": 5434, "uch": 4272, "Ġem": 2841, "Ġ=": 5457, "ĠRe": 1223, "ied": 2550, "rit": 3961, "Ġinv": 12259, "lect": 17601, "Ġsupp": 32535, "ating": 1295, "Ġlook": 356, "man": 397, "pect": 13771, "Ġ8": 290, "row": 4610, "Ġbu": 10306, "Ġwhere": 147, "ific": 8685, "Ġyears": 107, "ily": 5846, "Ġdiff": 25871, "Ġshould": 197, "Ġrem": 6398, "Th": 11329, "In": 1121, "Ġev": 7630, "day": 1208, "'re": 214, "rib": 8643, "Ġrel": 6258, "ss": 7485, "Ġdef": 3816, "Ġright": 235, "Ġsy": 13550, "),": 238, "les": 1634, "000": 151, "hen": 2457, "Ġthrough": 149, "ĠTr": 2393, "__": 30529, "Ġway": 169, "Ġdon": 218, "Ġ,": 2156, "Ġ10": 158, "ased": 11835, "Ġass": 8446, "ublic": 40171, "Ġreg": 6701, "ĠAnd": 178, "ix": 3181, "Ġvery": 182, "Ġinclud": 48079, "other": 7443, "Ġimp": 4023, "oth": 6157, "Ġsub": 2849, "ĠâĢĶ": 93, "Ġbeing": 145, "arg": 5384, "ĠWh": 3990, "==": 43292, "ible": 4748, "Ġdoes": 473, "ange": 10987, "ram": 4040, "Ġ9": 361, "ert": 2399, "ps": 3275, "ited": 4560, "ational": 5033, "Ġbr": 5378, "Ġdown": 159, "Ġmany": 171, "aking": 7520, "Ġcall": 486, "uring": 5206, "ities": 2192, "Ġph": 7843, "ics": 2857, "als": 1536, "Ġdec": 5044, "ative": 3693, "ener": 5777, "Ġbefore": 137, "ility": 13005, "Ġwell": 157, "Ġmuch": 203, "erson": 4277, "Ġthose": 167, "Ġsuch": 215, "Ġke": 7321, "Ġend": 253, "ĠBut": 125, "ason": 12231, "ting": 2577, "Ġlong": 251, "ef": 4550, "Ġthink": 206, "ys": 2459, "Ġbel": 12138, "Ġsm": 5278, "its": 2629, "ax": 3631, "Ġown": 308, "Ġprov": 11570, "Ġset": 278, "ife": 11819, "ments": 2963, "ble": 5225, "ward": 7767, "Ġshow": 311, "Ġpres": 9383, "ms": 4339, "omet": 11174, "Ġob": 6168, "Ġsay": 224, "ĠSh": 840, "ts": 1872, "ful": 2650, "Ġeff": 22089, "Ġgu": 11843, "Ġinst": 9084, "und": 3194, "ren": 2558, "cess": 19348, "Ġent": 3838, "ĠYou": 370, "Ġgood": 205, "Ġstart": 386, "ince": 15062, "Ġmade": 156, "tt": 5967, "stem": 40859, "olog": 8982, "up": 658, "Ġ|": 1721, "ump": 7198, "Ġhel": 16068, "vern": 12170, "ular": 8244, "ually": 13851, "Ġac": 4285, "Ġmon": 6154, "Ġlast": 94, "Ġ200": 1878, "10": 698, "Ġstud": 15863, "ures": 4123, "ĠAr": 1586, "self": 13367, "ars": 2726, "meric": 30998, "ues": 3663, "cy": 4469, "Ġmin": 5251, "ollow": 40686, "Ġcol": 11311, "io": 1020, "Ġmod": 11134, "Ġcount": 3212, "ĠCom": 4556, "hes": 5065, "Ġfin": 8746, "air": 2456, "ier": 906, "âĢĶ": 578, "read": 12745, "ank": 3153, "atch": 11175, "ever": 6294, "Ġstr": 7031, "Ġpoint": 477, "ork": 9657, "ĠNew": 188, "Ġsur": 8113, "ool": 8110, "alk": 9707, "ement": 6285, "Ġused": 341, "ract": 15664, "ween": 40655, "Ġsame": 276, "oun": 7928, "ĠAl": 726, "ci": 2520, "Ġdiffere": 47850, "Ġwhile": 150, "--------": 49198, "Ġgame": 177, "cept": 16771, "Ġsim": 16207, "...": 734, "Ġinter": 3222, "ek": 1951, "Ġreport": 266, "Ġprodu": 21411, "Ġstill": 202, "led": 1329, "ah": 895, "Ġhere": 259, "Ġworld": 232, "Ġthough": 600, "Ġnum": 15009, "arch": 13161, "imes": 9452, "ale": 1627, "ĠSe": 1608, "ĠIf": 318, "//": 42326, "ĠLe": 1063, "Ġret": 5494, "Ġref": 4885, "Ġtrans": 6214, "ner": 1396, "ution": 15175, "ters": 2696, "Ġtake": 185, "ĠCl": 2893, "Ġconf": 7856, "way": 1970, "ave": 4097, "Ġgoing": 164, "Ġsl": 3369, "ug": 3252, "ĠAmeric": 44647, "Ġspec": 12002, "Ġhand": 865, "Ġbetween": 227, "ists": 1952, "ĠDe": 926, "oot": 9210, "It": 243, "Ġear": 5567, "Ġagainst": 136, "Ġhigh": 239, "gan": 3494, "az": 1222, "ather": 13860, "Ġexp": 4553, "Ġop": 5963, "Ġins": 7540, "Ġgr": 4435, "Ġhelp": 244, "Ġrequ": 35577, "ets": 2580, "ins": 1344, "ĠPro": 1698, "ism": 1809, "Ġfound": 303, "land": 1245, "ata": 2186, "uss": 4781, "ames": 12336, "Ġperson": 621, "Ġgreat": 372, "pr": 4862, "Ġsign": 1203, "ĠAn": 660, "'ve": 348, "Ġsomet": 45420, "Ġser": 6821, "hip": 4128, "Ġrun": 422, "Ġ:": 4832, "Ġter": 8470, "irect": 38806, "Ġfollow": 1407, "Ġdet": 6769, "ices": 6355, "Ġfind": 465, "12": 1092, "Ġmem": 26012, "Ġcr": 3977, "ered": 3215, "ex": 3463, "Ġext": 8935, "uth": 5914, "ense": 9401, "co": 876, "Ġteam": 165, "ving": 6645, "ouse": 11556, "ash": 1671, "att": 2611, "ved": 5202, "Ġsystem": 467, "ĠAs": 287, "der": 3624, "ives": 3699, "min": 4691, "Ġlead": 483, "ĠBl": 2091, "cent": 6342, "Ġaround": 198, "Ġgovern": 11738, "Ġcur": 5350, "velop": 27216, "any": 3785, "Ġcour": 17867, "alth": 29547, "ages": 3443, "ize": 2072, "Ġcar": 512, "ode": 4636, "Ġlaw": 488, "Ġread": 1166, "'m": 437, "con": 3865, "Ġreal": 588, "Ġsupport": 323, "Ġ12": 316, "....": 17220, "Ġreally": 269, "ness": 1825, "Ġfact": 754, "Ġday": 183, "Ġboth": 258, "ying": 4048, "Ġserv": 18527, "ĠFor": 286, "Ġthree": 130, "Ġwom": 38085, "Ġmed": 5679, "ody": 9956, "ĠThey": 252, "50": 1096, "Ġexper": 34433, "ton": 1054, "Ġeach": 349, "akes": 5556, "Ġche": 5851, "Ġcre": 8633, "ines": 3141, "Ġrep": 2851, "19": 1646, "gg": 6149, "illion": 10077, "Ġgrou": 22970, "ute": 4467, "ik": 967, "We": 170, "get": 6460, "ER": 2076, "Ġmet": 1145, "Ġsays": 161, "ox": 4325, "Ġduring": 148, "ern": 3281, "ized": 1538, "ared": 6537, "Ġfam": 13403, "ically": 3435, "Ġhapp": 48288, "ĠIs": 1534, "Ġchar": 16224, "med": 4567, "vent": 9399, "Ġgener": 20181, "ient": 4843, "ple": 8293, "iet": 5810, "rent": 9854, "11": 1225, "ves": 3677, "ption": 24802, "Ġ20": 291, "formation": 26941, "Ġcor": 9240, "Ġoffic": 16571, "ield": 8363, "Ġtoo": 350, "ision": 10699, "Ġinf": 4047, "ĠZ": 525, "the": 627, "oad": 20657, "Ġpublic": 285, "Ġprog": 17618, "ric": 4063, "**": 12606, "Ġwar": 997, "Ġpower": 476, "view": 5877, "Ġfew": 367, "Ġloc": 18327, "Ġdifferent": 430, "Ġstate": 194, "Ġhead": 471, "'ll": 581, "Ġposs": 28001, "Ġstat": 12377, "ret": 4903, "ants": 3277, "Ġval": 7398, "Ġiss": 46682, "Ġcle": 12479, "ivers": 10744, "anc": 3290, "Ġexpl": 22907, "Ġanother": 277, "ĠQ": 1209, "Ġav": 6402, "thing": 13247, "nce": 15285, "Wh": 14447, "Ġchild": 920, "Ġsince": 187, "ired": 7651, "less": 1672, "Ġlife": 301, "Ġdevelop": 2179, "ittle": 21385, "Ġdep": 8273, "Ġpass": 1323, "ãĥ": 48909, "Ġturn": 1004, "orn": 4244, "This": 713, "bers": 9569, "ross": 14500, "ĠAd": 1614, "Ġfr": 6664, "Ġresp": 18237, "Ġsecond": 200, "oh": 2678, "Ġ/": 1589, "Ġdisc": 9553, "Ġ&": 359, "Ġsomething": 402, "Ġcomple": 14156, "Ġed": 4803, "Ġfil": 14242, "Ġmonth": 353, "aj": 1176, "uc": 3964, "Ġgovernment": 168, "Ġwithout": 396, "Ġleg": 2985, "Ġdist": 7018, "Ġput": 342, "Ġquest": 9794, "ann": 2279, "Ġprot": 24892, "20": 844, "Ġnever": 393, "ience": 11465, "Ġlevel": 672, "Ġart": 1808, "Ġthings": 383, "Ġmight": 429, "Ġeffect": 1683, "Ġcontro": 33370, "Ġcent": 715, "Ġ18": 504, "Ġallow": 1157, "Ġbelie": 43731, "chool": 27085, "ott": 5229, "Ġincre": 47080, "Ġfeel": 619, "Ġresult": 898, "Ġlot": 319, "Ġfun": 1531, "ote": 6457, "Ġty": 13152, "erest": 44488, "Ġcontin": 39077, "Ġusing": 634, "Ġbig": 380, "201": 16295, "Ġask": 1394, "Ġbest": 275, "Ġ)": 4839, "IN": 2444, "Ġopp": 27906, "30": 541, "Ġnumber": 346, "iness": 6601, "St": 5320, "lease": 40871, "Ġca": 6056, "Ġmust": 531, "Ġdirect": 2228, "Ġgl": 5921, "Ġ<": 28696, "Ġopen": 490, "Ġpost": 618, "Ġcome": 283, "Ġseem": 2045, "ording": 36473, "Ġweek": 186, "ately": 7223, "ital": 8632, "Ġel": 1615, "riend": 36619, "Ġfar": 444, "Ġtra": 8419, "inal": 6204, "Ġpri": 13512, "ĠUS": 382, "Ġplace": 317, "Ġform": 1026, "Ġtold": 174, "\":": 7862, "ains": 5069, "ature": 18830, "ĠTrump": 140, "Ġstand": 1413, "Ġ#": 849, "ider": 5326, "ĠFr": 4967, "Ġnext": 220, "Ġsoc": 17380, "Ġpur": 9695, "Ġlet": 905, "Ġlittle": 410, "Ġhum": 10080, "Ġi": 939, "ron": 2839, "15": 996, "Ġ15": 379, "Ġcommun": 16759, "Ġmark": 2458, "ĠThere": 345, "Ġwr": 14902, "ĠThat": 280, "Ġinformation": 335, "ways": 5924, "Ġbus": 2353, "app": 3340, "Ġinvest": 3754, "me": 1794, "Ġhard": 543, "ained": 7153, "ead": 19928, "Ġimport": 6595, "Ġappro": 44766, "Ġtest": 1296, "Ġtri": 7182, "Ġrest": 1079, "osed": 7878, "Ġfull": 455, "Ġcare": 575, "ĠSp": 2064, "Ġcase": 403, "ON": 2191, "Ġsk": 2972, "Ġless": 540, "Ġ+": 2055, "Ġpartic": 28872, "ĠPl": 3037, "ably": 4735, "uck": 5858, "ished": 6555, "chn": 13212, "be": 1610, "Ġlist": 889, "ator": 2630, "Ġtop": 299, "Ġadv": 34369, "ĠBe": 1456, "ruct": 16018, "Ġdem": 4410, "ration": 8475, "ling": 1527, "gy": 4740, "reen": 22500, "ger": 2403, "Ġhome": 184, "Ġleft": 314, "Ġbetter": 357, "Ġdata": 414, "Ġ11": 365, "Ġattack": 908, "Ġproble": 35006, "line": 1902, "ards": 5954, "Ġbeh": 34960, "ral": 7085, "ĠHow": 1336, "ĠShe": 264, "arge": 16347, "Ġ--": 480, "://": 640, "Ġbro": 11051, "ĠPh": 4129, "ats": 2923, "Ġbuild": 1119, "ww": 33130, "ided": 8598, "aim": 7146, "ases": 9354, "ency": 6761, "Ġmain": 1049, "ined": 6158, "Ġincluding": 217, "Ġ{": 25522, "Ġgot": 300, "Ġinterest": 773, "Ġkeep": 489, "ĠX": 1577, "Ġeas": 29521, "aining": 8173, "Ġclass": 1380, "âĢ¦": 1174, "ĠNo": 440, "Ġvar": 15747, "Ġsmall": 650, "ample": 29069, "AT": 2571, "Ġide": 23432, "ĠSo": 407, "Ġrece": 22936, "Ġpolit": 10635, "Ġmov": 32924, "Ġplan": 563, "Ġpercent": 135, "iving": 9404, "Ġcamp": 2205, "Ġpay": 582, "14": 1570, "sc": 3866, "ised": 1720, "Ġunt": 7587, "oney": 6071, "ploy": 27877, "====": 48332, "Ġdidn": 399, "ĠInd": 4619, "els": 2507, "ertain": 23801, "Ġpos": 8593, "____": 28784, "iver": 8538, "Ġprocess": 609, "Ġprogram": 586, "ified": 3786, "ĠRep": 2825, "16": 1549, "uro": 7367, "ology": 4383, "atter": 7933, "ina": 1243, "Ġname": 766, "ĠAll": 404, "Ġfour": 237, "Ġreturn": 671, "vious": 24963, "bs": 4311, "Ġcalled": 373, "Ġmove": 517, "ĠSc": 2741, "ird": 8602, "Ġgroup": 333, "Ġbre": 15549, "Ġmen": 604, "Ġcap": 2927, "ten": 3869, "ee": 1942, "Ġdri": 13911, "leg": 4308, "here": 10859, "uthor": 45944, "Ġpat": 10512, "Ġcurrent": 595, "ides": 4376, "Ġpop": 3495, "to": 560, "ention": 19774, "Ġalways": 460, "Ġmil": 9209, "Ġwomen": 390, "Ġ16": 545, "Ġold": 793, "iven": 19239, "raph": 33518, "ĠOr": 1793, "ror": 21929, "ently": 7240, "Ġnear": 583, "ĠEx": 3015, "ream": 26930, "sh": 1193, "Ġ14": 501, "Ġfree": 481, "ission": 27042, "stand": 8490, "ĠCon": 2585, "ality": 6948, "used": 6199, "13": 1558, "Ġdesign": 1521, "Ġchange": 464, "Ġchang": 24622, "Ġbo": 5276, "Ġvis": 17737, "ember": 22542, "Ġbook": 1040, "ready": 16402, "Ġkill": 3549, "25": 1244, "pped": 5686, "Ġaway": 409, "Ġable": 441, "Ġcountry": 247, "Ġconst": 10759, "arn": 4422, "Ġorder": 645, "AR": 2747, "ior": 7375, "ium": 4031, "orth": 22494, "18": 1366, "ailable": 38484, "Ġsw": 3514, "Ġmillion": 153, "Ġ13": 508, "atic": 5183, "ted": 5357, "ĠGo": 2381, "Ġoper": 19470, "eng": 3314, "Ġthing": 631, "ajor": 47417, "conom": 35706, "ĠComm": 9204, "Ġwhy": 596, "ured": 4075, "ural": 9799, "Ġschool": 334, "by": 1409, "ĠMar": 1127, "Ġaff": 11129, "Ġdays": 360, "Ġann": 9915, "ush": 3810, "ane": 1728, "If": 1106, "eg": 3733, "Ġprof": 8546, "Ġhealth": 474, "outh": 15617, "But": 1708, "ional": 6073, ".,": 482, "Ġsol": 9281, "Ġalready": 416, "Ġ30": 389, "Ġcharact": 49650, "He": 894, "Ġfriend": 1441, "ES": 1723, "ians": 2071, "icle": 11317, "'d": 1017, "ĠOn": 374, "Ġleast": 513, "Ġprom": 12206, "Ġdr": 12402, "Ġhist": 33945, "ither": 15027, "Ġest": 3304, "iqu": 9071, "17": 1360, "son": 1478, "Ġtell": 1137, "Ġtalk": 1067, "ohn": 17648, "oint": 15494, "lection": 20576, "AN": 1889, "Ġuntil": 454, "augh": 11675, "Ġlater": 423, "Ġve": 5030, "Ġview": 1217, "ending": 4345, "ived": 19133, "Ġword": 2136, "ware": 10680, "Ġcost": 701, "Ġenough": 615, "Ġgive": 492, "ĠUnited": 315, "Ġtechn": 23839, "arent": 35558, "OR": 3411, "Ġpar": 2242, "ĠDr": 925, "Ġ2016": 336, "rist": 11516, "ering": 2961, "ĠÂ": 5505, "Ġlarge": 739, "side": 3730, "acy": 5073, "ccess": 47862, "Ġwin": 339, "Ġimportant": 505, "Ġ199": 29272, "Ġdoesn": 630, "Ġ17": 601, "Ġbusiness": 265, "Ġclear": 699, "Ġrese": 25806, "\",": 1297, "ury": 6801, "Ġequ": 4065, "aster": 8831, "alf": 10595, "ĠAmerican": 470, "nect": 45114, "Ġexpect": 1057, "iversity": 31104, "Ġocc": 37627, "ĠFl": 4150, "Ġkind": 761, "Ġmean": 1266, "Ġpast": 375, "Ġdev": 8709, "Ġbas": 11909, "let": 2716, "raft": 13001, "Ġorgan": 6757, "Ġdel": 2424, "Ġperform": 3008, "Ġstory": 527, "Ġseason": 191, "ĠCol": 3182, "Ġclaim": 2026, "Ġcame": 376, "Ġwithin": 624, "Ġline": 516, "Ġproject": 695, "ĠAt": 497, "Ġcontrol": 797, "ended": 6228, "ĠSy": 5767, "Ġair": 935, "ization": 1938, "Ġ*": 1009, "ley": 607, "Ġmoney": 418, "idd": 6502, "You": 1185, "for": 1990, "Ġfamily": 284, "Ġmaking": 442, "Ġbit": 828, "Ġpolice": 249, "Ġhappen": 1369, "Ġvers": 19431, "ony": 6119, "uff": 5865, "ĠWhen": 520, "Ġsit": 2662, "ideo": 44234, "lf": 13491, "ison": 4060, "Ġsure": 686, "gin": 11405, "Ġappear": 2082, "Ġlight": 1109, "Ġes": 2714, "of": 1116, "Ġwater": 514, "Ġtimes": 498, "not": 3654, "Ġgrow": 1733, "Ġcompany": 138, "ĠTe": 2941, "ows": 2176, "Ġmar": 4401, "ource": 32892, "iol": 14215, "arm": 4526, "br": 3809, "Ġexample": 1246, "Ġconc": 10146, "Ġfore": 4899, "ĠTo": 598, "pro": 4892, "EN": 2796, "ries": 4458, "Ġ25": 564, "ĠCan": 2615, "ney": 2596, "Ġactually": 888, "Ġever": 655, "urity": 25075, "aken": 12578, "aps": 7527, "Ġtax": 629, "Ġmajor": 538, "ama": 2583, "Ġoften": 747, "eral": 6653, "Ġhuman": 1050, "Ġjob": 633, "ister": 4742, "Ġavailable": 577, "ocr": 32508, "enn": 4734, "aid": 5526, "ivid": 6837, "Ġrecord": 638, "?\"": 1917, "Ġsing": 7884, "ĠAm": 1918, "idence": 17444, "Ġnews": 340, "ster": 3121, "Ġeconom": 37895, "Ġfollowing": 511, "ĠBr": 2265, "ising": 3009, "Ġhour": 1946, "most": 7877, "ument": 18816, "Ġsex": 2099, "Ġdesc": 23174, "Ġbecome": 555, "ĠEd": 2344, "Ġtook": 362, "Ġhaving": 519, "Ġproduct": 1152, "ault": 8839, "As": 1620, "aring": 5867, "Ġmeans": 839, "Ġhop": 13591, "une": 4438, "Ġcho": 14310, "Ġcertain": 1402, "Ġnon": 786, "Ġdeal": 432, "24": 1978, "lement": 13767, "oci": 17641, "ene": 2552, "Ġside": 526, "ĠPr": 2869, "ĠMay": 392, "Ġreason": 1219, "ued": 6796, "ched": 3804, "ulation": 11264, "Ġelect": 10371, "Ġofficial": 781, "Ġpossible": 678, "Ġhold": 946, "ands": 8771, "ots": 5992, "Ġcity": 343, "ories": 9023, "Ġsever": 20242, "Ġchildren": 408, "Ġonce": 683, "Ġactiv": 30264, "ler": 1371, "Ġnight": 363, "itions": 8237, "ĠJohn": 610, "ape": 5776, "play": 5785, "Ġdone": 626, "Ġlim": 11369, "Ġworking": 447, "ĠPres": 7946, "orld": 39949, "eb": 3209, "ĠCo": 944, "Ġbody": 809, "ails": 11791, "utes": 11282, "ĠMr": 427, "Ġwhether": 549, "Ġauthor": 2730, "rop": 6884, "Ġproper": 4692, "Ġseen": 450, ");": 4397, "Ġfac": 11778, "ĠSu": 3296, "Ġcond": 10022, "iting": 2838, "Ġcourse": 768, "Ġ}": 35524, "----------------": 24524, "aign": 26483, "Ġevent": 515, "Ġeng": 20407, "Ġpot": 4728, "Ġintern": 11587, "iam": 6009, "Ġshort": 765, "empt": 15318, "ãĤ": 47783, "ĠGod": 1840, "ilar": 16813, "80": 2940, "Ġorig": 26225, "IS": 1729, "ourn": 8371, "ability": 4484, "itive": 15589, "Ġdam": 9656, "Ġ100": 727, "Ġpress": 1228, "Ġdoing": 608, "Ġprotect": 1744, "ring": 4506, "Ġthought": 802, "Ġquestion": 864, "rew": 10461, "ĠWar": 1771, "Ġseveral": 484, "ĠState": 331, "Ġgiven": 576, "Ġfund": 1391, "ĠTw": 9922, "Ġwent": 439, "ances": 5332, "work": 6014, "por": 12150, "my": 4783, "40": 1749, "Ġarg": 29480, "artment": 27699, "ustom": 46278, "Ġpolic": 21497, "Ġmeet": 972, "Ġcreat": 34113, "22": 2036, "ĠStates": 532, "Ġgames": 426, "raw": 9056, "uture": 47028, "Ġunderstand": 1346, "urs": 4668, "ĠOb": 5816, "lish": 21457, "sy": 8628, "Ġmakes": 817, "Ġwon": 351, "agon": 11408, "Ġhtt": 49805, "Ġlove": 657, "ential": 12986, "Ġcomplete": 1498, "par": 5489, "ĠIm": 5902, "AL": 2118, "Ġaccount": 1316, "Âł": 50141, "ored": 3995, "vert": 9942, "Ġident": 26702, "Ġ2015": 570, "Ġothers": 643, "ĠMin": 3635, "iber": 9760, "verage": 33943, "There": 970, "itional": 24176, "dd": 16134, "Ġprob": 16245, "Ġyoung": 664, "Ġalong": 552, "Ġaccording": 309, "Ġyet": 648, "Ġmembers": 453, "ĠWhat": 653, "oid": 12572, "ĠMan": 1554, "And": 2409, "Ġamong": 566, "ai": 1439, "Ġemploy": 12735, "ĠRes": 4787, "Ġ>": 8061, "Ġinvol": 40645, "Ġlow": 614, "af": 2001, "ĠCar": 1653, "Ġhig": 46519, "ĠOne": 509, "ĠSec": 16236, "ination": 8111, "Ġlikely": 533, "Ġant": 9876, "aged": 4628, "ĠRuss": 18184, "Ġben": 21576, "Ġrele": 38208, "For": 2709, "back": 1644, "ĠNot": 1491, "Ġpresident": 394, "ball": 3512, "Ġaccess": 899, "ividual": 49531, "ĠDem": 5245, "ĠEuro": 5122, "60": 2466, "Ġknown": 684, "irl": 12862, "ĠGr": 2974, "Ġearly": 419, "use": 3698, "iety": 25717, "âĢĵ": 2383, "Ġfight": 1032, "Ġsent": 1051, "Ġtoday": 452, "Ġmarket": 210, "\".": 845, "Ġbased": 716, "Ġstrong": 670, "urther": 39212, "Ġdeb": 10189, "mber": 34707, "Ġproblem": 936, "Ġdeath": 744, "Ġsocial": 592, "imate": 16633, "AS": 2336, "ortun": 21108, "Ġcampaign": 637, "ery": 4270, "Ch": 4771, "Ġey": 28699, "ially": 11416, "Ġmus": 11721, "wh": 11613, "pos": 11474, "Ġer": 3335, "Ġsaf": 25277, "Ġmonths": 377, "iron": 11680, "Ġviol": 21711, "Ġfive": 292, "Ġstre": 22246, "Ġplayers": 472, "inc": 3976, "ald": 5618, "year": 180, "aun": 7381, "Ġsuccess": 1282, "Ġpresent": 1455, "erence": 24935, "Ġ2014": 777, "Ġsugg": 48411, "Ġparticular": 1989, "Ġtry": 860, "Ġsuggest": 3608, "ĠChrist": 4845, "ones": 6909, "Ġpriv": 20955, "23": 1922, "Ġcrit": 28024, "Ġland": 1212, "Ġlocal": 400, "ify": 4591, "29": 2890, "Ġaut": 7241, "ED": 1691, "ĠGu": 2646, "Ġmult": 7268, "Ġpolitical": 559, "Ġasked": 553, "Ġformer": 320, "itter": 7915, "ript": 36423, "Ġclose": 593, "Ġpract": 21886, "ĠYork": 469, "Ġgetting": 562, "Ġacross": 420, "Ġcomb": 14960, "Ġbelieve": 679, "Ġz": 992, "Ġtoget": 49409, "Ġtogether": 561, "ĠCent": 7838, "irc": 21163, "Ġindividual": 1736, "ĠMc": 1509, "27": 2518, "isk": 6812, "ĠEng": 8227, "Ġface": 652, "Ġ24": 706, "Ġvalue": 923, "Ġarea": 443, "ev": 3623, "Ġwrit": 25859, "ĠPresident": 270, "Ġvot": 19314, "Ġkey": 762, "Ġmom": 3795, "put": 9179, "Ġanything": 932, "Ġexperience": 676, "attle": 19598, "Ġmind": 1508, "aff": 3707, "omm": 8615, "Ġfuture": 499, "ged": 4462, "Ġcut": 847, "Ġtot": 11563, "itch": 3239, "Ġvideo": 569, "Ġinvestig": 25463, "Ġnet": 1161, "ĠMy": 1308, "rict": 12127, "ien": 2495, ".)": 1592, "Ġimpro": 44354, "though": 18401, "wards": 17337, "Ġconnect": 4686, "ĠMed": 5066, "selves": 44513, "ensive": 17355, "mb": 6648, "ober": 24761, "ators": 3629, "An": 4688, "Ġ50": 654, "Ġredu": 32558, "resent": 34013, "Ġabove": 1065, "Ġfre": 7619, "ĠEurope": 1005, "sw": 4184, "Ġamount": 1280, "ĠApp": 3166, "Ġeither": 1169, "Ġmilit": 16959, "Ġanal": 26363, "Ġfail": 5998, "ĠEn": 2271, "ales": 4575, "Ġspecial": 780, "Ġblack": 909, "IT": 2068, "cher": 5260, "Ġlooking": 546, "Ġfire": 668, "yn": 3892, "Ġalmost": 818, "oon": 3863, "Ġstudy": 892, "Ġmiss": 2649, "ches": 5559, "rown": 19649, "Ġtre": 6110, "Ġcommunity": 435, "Ġmedia": 433, "Ġfood": 689, "Ġcomes": 606, "ĠUniversity": 589, "Ġsingle": 881, "What": 2264, "uly": 21347, "Ġhalf": 457, "ague": 17558, "hod": 24615, "ĠRepublic": 3497, "Ġstarted": 554, "Ġquick": 2119, "oto": 7087, "book": 6298, "Ġissue": 696, "itor": 7852, "Ġelse": 1493, "Ġconsider": 1701, "26": 2481, "rodu": 44953, "Ġtaken": 551, "28": 2517, "99": 2831, "ĠWith": 590, "Ġtrue": 1528, "Ġwa": 13332, "Ġtrad": 26916, "Ġago": 536, "Ġmess": 7319, "ief": 14134, "Ġadded": 355, "oke": 5361, "Ġbad": 1099, "Ġfav": 23651, "33": 3103, "Ġsimilar": 1122, "ask": 4970, "ĠDon": 1599, "Ġcharacter": 2048, "orts": 8807, "ĠHouse": 446, "Ġreported": 431, "Ġtype": 1907, "val": 6486, "iod": 22694, "ĠHowever": 635, "Ġtarg": 47624, "Ġentire": 1445, "pping": 5435, "Ġhistory": 750, "Ġlive": 697, "ffic": 22968, "........": 42514, "ederal": 40316, "Ġtrying": 667, "Ġdiscuss": 2268, "ĠHar": 2482, "aces": 11667, "lished": 49411, "Ġself": 1403, "osp": 16497, "rest": 7110, "Ġroom": 929, "elt": 6607, "Ġfall": 1136, "olution": 23794, "Ġet": 4400, "Ġx": 3023, "Ġisn": 965, "Ġidea": 1114, "bo": 3983, "Ġsound": 2369, "ĠDep": 6748, "Ġsomeone": 951, "cially": 24354, "ully": 19678, "Ġfoc": 25284, "Ġobject": 7626, "ift": 9417, "aper": 15888, "Ġplayer": 869, "Ġrather": 1195, "Ġservice": 544, "ashing": 8141, "ĠDo": 1832, "ĠPart": 4657, "rug": 12476, "mon": 5806, "ply": 26308, "Ġmor": 14628, "Ġnothing": 1085, "Ġprovide": 694, "IC": 2371, "ung": 1545, "Ġparty": 537, "Ġexist": 5152, "Ġmag": 9931, "70": 3083, "Ġrul": 48725, "Ġhouse": 790, "Ġbehind": 639, "Ġhowever": 959, "ĠWorld": 623, "Ġsum": 6797, "Ġapplic": 40967, "Ġ;": 25606, "Ġfunction": 5043, "gr": 6504, "ĠPol": 6189, "Ġfront": 760, "200": 2619, "Ġseries": 651, "Ġtem": 11030, "Ġtyp": 33488, "ills": 5622, "Ġopt": 7996, "Ġpoints": 332, "Ġbelow": 874, "itted": 16430, "Ġspecific": 2167, "Ġ2017": 193, "umb": 4179, "Ġra": 15642, "Ġprevious": 986, "Ġpret": 11857, "reme": 21612, "Ġcustom": 6777, "Ġcourt": 461, "ĠMe": 1464, "Ġrepl": 19236, "Ġwhole": 1086, "go": 2977, "cer": 7742, "Ġtreat": 3951, "ĠAct": 1783, "Ġprobably": 1153, "Ġlearn": 1532, "ender": 7232, "ĠAss": 6331, "Ġversion": 1732, "now": 8310, "Ġcheck": 1649, "ĠCal": 2912, "RE": 4629, "minist": 38466, "On": 4148, "ources": 39412, "Ġbenef": 19018, "Ġdoc": 22053, "Ġdeter": 10922, "Ġenc": 9689, "Ġsuper": 2422, "Ġaddress": 1100, "Ġvict": 25005, "Ġ2013": 1014, "Ġmeas": 40540, "tr": 4328, "Ġfield": 882, "When": 1779, "Ġsignific": 40042, "uge": 11797, "Ġfeat": 11930, "Ġcommon": 1537, "load": 16204, "Ġbegin": 1642, "Ġbring": 836, "Ġaction": 814, "erman": 7043, "Ġdescrib": 47591, "Ġindust": 25389, "Ġwanted": 770, "ried": 10382, "ming": 7059, "Ġattempt": 2120, "45": 1898, "fer": 6646, "Ġdue": 528, "ression": 21791, "##": 48342, "Ġshall": 5658, "Ġsix": 411, "oo": 3036, "Ġstep": 1149, "Ġpub": 8881, "Ġhimself": 1003, "Ġ23": 883, "Ġcop": 9212, "Ġdest": 15357, "Ġstop": 912, "AC": 2562, "ibility": 12203, "Ġlab": 6348, "icult": 28075, "Ġhours": 722, "Ġcreate": 1045, "Ġfurther": 617, "ĠAmerica": 730, "ĠCity": 412, "Ġdou": 25605, "head": 3628, "ST": 4014, "ĠNorth": 369, "cing": 11162, "Ġnational": 632, "ule": 7590, "ĠInst": 8857, "Ġtaking": 602, "ĠQu": 3232, "irt": 9211, "Ġred": 1275, "Ġresearch": 557, "viron": 43516, "ĠGe": 4177, "Ġbreak": 1108, "ana": 1113, "Ġspace": 980, "aterial": 36270, "Ġrecent": 485, "ĠAb": 2060, "Ġgeneral": 937, "Ġhit": 478, "Ġperiod": 675, "Ġeverything": 960, "ively": 6608, "Ġphys": 38016, "Ġsaying": 584, "anks": 10950, "Ġcou": 15763, "Ġcult": 12308, "aced": 8988, "eal": 18696, "uation": 9762, "Ġcoun": 30335, "lu": 6487, "Ġinclude": 680, "Ġposition": 737, "ĠAfter": 572, "ĠCanad": 40836, "ĠEm": 3676, "Ġimm": 15192, "ĠRed": 1211, "Ġpick": 1339, "Ġcompl": 13000, "Ġmatter": 948, "reg": 4950, "ext": 16435, "angu": 21822, "isc": 4473, "ole": 4104, "aut": 4255, "Ġcompet": 12766, "eed": 10247, "fect": 17706, "Ġ21": 733, "ĠSen": 2211, "ĠThese": 1216, "asing": 7913, "Ġcannot": 1395, "Ġinit": 45511, "Ġrelations": 3115, "ached": 12552, "Ġbar": 2003, "Ġ40": 843, "ĠTH": 8640, "Ġ2012": 1125, "Ġvol": 13103, "Ġground": 1255, "Ġsecurity": 573, "Ġupd": 43529, "ilt": 10325, "35": 2022, "Ġconcern": 2212, "ĠJust": 1801, "Ġwhite": 1104, "Ġseems": 1302, "ĠHer": 1405, "pecially": 45674, "ients": 20676, "Ġannoun": 43950, "Ġfig": 29959, "ights": 6183, "Ġstri": 28213, "like": 3341, "ids": 7823, "Ġsus": 12495, "Ġwatch": 1183, "Ġâ": 14333, "Ġwind": 2508, "ĠCont": 7555, "Ġitself": 1495, "Ġmass": 2862, "Al": 7083, "yle": 14143, "ique": 5150, "ĠNational": 496, "Ġabs": 15428, "Ġpack": 6356, "Ġoutside": 751, "Ġanim": 23727, "Ġpain": 2400, "eter": 5906, "Ġmanag": 45718, "duct": 43518, "ogn": 18857, "Ġ]": 27779, "ĠSept": 1919, "sec": 8584, "off": 1529, "ĠJan": 1133, "Ġfoot": 2767, "ades": 4216, "Ġthird": 371, "Ġmot": 18408, "Ġevidence": 1283, "inton": 10528, "Ġthreat": 1856, "apt": 14455, "ples": 12349, "cle": 16008, "Ġlo": 4600, "Ġdecl": 16163, "Ġitem": 6880, "medi": 34658, "Ġrepresent": 3594, "omb": 5223, "amer": 8015, "Ġsignificant": 1233, "ograph": 22731, "su": 9228, "Ġcal": 13011, "ires": 7948, "0000": 14200, "ID": 2688, "AM": 2620, "Ġsimply": 1622, "Ġlonger": 1181, "Ġfile": 2870, "OT": 3293, "che": 2871, "So": 2847, "ateg": 27586, "org": 1957, "ĠHis": 832, "Ġener": 38351, "Ġdom": 13567, "Ġupon": 2115, "ili": 4715, "\":\"": 4805, "Ġthemselves": 1235, "Ġcoming": 567, "Ġquite": 1341, "Ġdifficult": 1202, "ĠBar": 1731, "ilities": 42651, "rel": 5982, "ends": 8845, "cial": 15585, "64": 4027, "Ġwoman": 693, "rap": 8645, "yr": 4503, "Ġnecess": 25071, "ips": 7418, "Ġtext": 2788, "Ġrequire": 2703, "Ġmilitary": 831, "Ġreview": 1551, "Ġrespons": 29268, "75": 2545, "Ġsubject": 2087, "Ġinstead": 1386, "Ġissues": 743, "Ġgen": 12358, "\",\"": 4332, "Ġminutes": 728, "Ġweap": 49772, "ray": 5022, "amed": 7486, "time": 958, "bl": 3662, "How": 6179, "Ġcode": 3260, "ĠSm": 4966, "Ġhigher": 723, "ĠSte": 5527, "ris": 4663, "Ġpage": 1842, "Ġstudents": 521, "ĠIntern": 23094, "Ġmethod": 5448, "ĠAug": 2049, "ĠPer": 2595, "ĠAg": 3303, "Ġpolicy": 714, "ĠSw": 3323, "Ġexec": 26126, "Ġaccept": 3264, "ume": 9271, "ribut": 24008, "Ġwords": 1617, "Ġfinal": 507, "Ġchanges": 1022, "ĠDemocr": 44968, "Ġfriends": 964, "Ġrespect": 2098, "Ġep": 14887, "Ġcompan": 40005, "ivil": 41868, "Ġdamage": 1880, "****": 30115, "ogle": 32507, "vironment": 49225, "Ġneg": 15183, "ental": 13589, "Ġap": 6256, "Ġtotal": 746, "ival": 11221, "!\"": 2901, "lim": 10839, "Ġneeds": 782, "Ġagre": 48425, "Ġdevelopment": 709, "Ġage": 1046, "iple": 42420, "21": 2146, "Ġresults": 775, "ĠAf": 6710, "Sh": 3609, "Ġgun": 1751, "ĠObama": 1284, "roll": 9671, "Ġ@": 787, "Ġrights": 659, "ĠBrit": 9446, "Ġrunning": 878, "Ġwasn": 938, "Ġport": 4103, "Ġrate": 731, "Ġpretty": 1256, "Ġtarget": 1002, "Ġsaw": 794, "Ġcirc": 27884, "Ġworks": 1364, "icro": 46473, "alt": 3967, "over": 2137, "www": 1401, "That": 1711, "lier": 14730, "Ġeveryone": 961, "ude": 6343, "Ġpie": 11637, "iddle": 17993, "rael": 37715, "Ġrad": 13206, "Ġblock": 1803, "Ġwalk": 1656, "To": 3972, "ãģ": 46311, "nes": 4977, "ĠAust": 18933, "aul": 6695, "rote": 26125, "ĠSouth": 391, "ession": 21308, "oph": 6673, "Ġshows": 924, "Ġsite": 1082, "Ġjo": 13509, "Ġrisk": 810, "clus": 19734, "lt": 7984, "Ġinj": 30272, "iding": 8231, "ĠSpe": 8330, "Ġchall": 45212, "irm": 9856, "Ġ22": 820, "itting": 9451, "str": 6031, "Ġhy": 14791, "LE": 3850, "key": 5282, "Ġbegan": 880, "atur": 8367, "ashington": 40886, "lam": 5112, "ĠDav": 7234, "bit": 5881, "Ġsize": 1836, "ĠPar": 2884, "38": 3170, "ournal": 49032, "face": 9021, "Ġdecision": 568, "Ġlarg": 22503, "Ġjud": 21392, "rect": 41087, "Ġcontinue": 535, "ĠOct": 1700, "overed": 16223, "ĠInt": 7299, "========": 48273, "Ġparent": 4095, "ĠWill": 2290, "Ġeasy": 1365, "Ġdrug": 1262, "anger": 8395, "Ġsense": 1472, "Ġdi": 2269, "iday": 21746, "Ġenergy": 1007, "istic": 5580, "Ġassoci": 40274, "arter": 24391, "obal": 37005, "eks": 15390, "ĠEl": 1448, "urch": 9222, "Ġgirl": 1816, "oe": 3540, "itle": 46398, "Ġ28": 971, "ĠChe": 3576, "Ġrequest": 2069, "Ġsoon": 1010, "Ġhost": 1482, "ky": 4122, "Ġstates": 982, "omes": 9898, "Ġmaterial": 1468, "lex": 14726, "Ġmoment": 1151, "Ġansw": 49642, "onse": 33098, "Ġespecially": 941, "Ġnorm": 13071, "Ġservices": 518, "pite": 45308, "ran": 3917, "Ġrole": 774, "44": 3305, "):": 3256, "Ġcred": 18994, "Cl": 11428, "________": 36440, "Ġmat": 7821, "Ġlog": 7425, "ĠClinton": 2235, "OU": 5061, "Ġoffice": 558, "Ġ26": 973, "Ġcharg": 34143, "Ġtrack": 1349, "ma": 1916, "Ġheart": 1144, "Ġball": 1011, "Ġpersonal": 1081, "Ġbuilding": 745, "na": 2133, "set": 8738, "body": 9773, "ĠBlack": 1378, "Ġincrease": 712, "itten": 15418, "Ġneeded": 956, "36": 3367, "32": 2881, "=\"": 40635, "Ġlost": 685, "Ġbecame": 1059, "Ġgroups": 1134, "ĠMus": 5950, "Ġwrote": 875, "ĠPe": 4119, "Ġprop": 8462, "joy": 20768, "Ã©": 1140, "ĠWhite": 735, "Ġdead": 1462, ".'": 955, "Ġhttp": 2054, "Ġwebs": 43972, "OS": 3196, "Ġinside": 1025, "Ġwrong": 1593, "Ġstatement": 445, "Ġ...": 1666, "yl": 4360, "Ġfilm": 822, "Ġmusic": 930, "Ġshare": 458, "ification": 5000, "Ġrelease": 800, "Ġforward": 556, "Ġstay": 1095, "Ġcomput": 44316, "itte": 13537, "ser": 12778, "Ġoriginal": 1461, "Ġcard": 1886, "Ġcand": 23505, "Ġdiv": 14445, "atural": 47310, "Ġfavor": 4402, "OM": 3765, "Ġcases": 1200, "uses": 9764, "Ġsection": 2810, "Ġleave": 989, "ging": 3923, "oved": 12677, "ĠWashington": 663, "39": 3416, "ĠGl": 4573, "Ġrequired": 1552, "action": 10845, "apan": 20948, "oor": 4623, "iter": 8660, "ĠKing": 1745, "Ġcountries": 749, "ĠGerman": 1859, "lling": 7633, "Ġ27": 974, "34": 3079, "Ġquestions": 1142, "Ġprim": 9156, "Ġcell": 3551, "Ġshoot": 4511, "Ġanyone": 1268, "ĠWest": 580, "Ġaffect": 3327, "epend": 26769, "Ġonline": 804, "ĠIsrael": 1870, "ĠSeptember": 772, "Ġability": 1460, "Ġcontent": 1383, "ises": 5504, "Ġreve": 26911, "Ġlaun": 48841, "Ġindic": 31171, "Ġforce": 1370, "cast": 5182, "Ġsold": 1088, "aving": 13286, "fl": 4825, "Ġsoft": 3793, "Ġcompanies": 451, "ceed": 32326, "Ġarticle": 1566, "Ġaud": 9818, "Ġrev": 6910, "Ġeduc": 30218, "Ġplaying": 816, "05": 2546, "Ġheld": 547, "ctor": 24427, "Ġreleased": 703, "Ġfederal": 752, "37": 3272, "Ġadminist": 42220, "Ġinterview": 1194, "Ġinstall": 8486, "Ġreceived": 829, "Ġsource": 1300, "uk": 1350, "Ph": 17297, "Ġserious": 1473, "Ġcreated": 1412, "Ġcause": 1303, "Ġimmedi": 43906, "Ġdefin": 32888, "uel": 8129, "ĠDepartment": 641, "ctions": 16849, "ĠCour": 11064, "ĠNow": 978, "ze": 2158, "ites": 5110, "itution": 26013, "Ġlate": 628, "Ġspeak": 1994, "ners": 7130, "Ġlegal": 1030, "ari": 1512, "ĠCor": 2812, "Ġweeks": 688, "Ġmodel": 1421, "Ġpred": 12574, "Ġexact": 6089, "BC": 3573, "ĠBy": 870, "ING": 1862, "osing": 10174, "Ġtakes": 1239, "Ġregard": 6203, "Ġopportun": 23609, "Ġprice": 425, "Ġ198": 30858, "ĠApr": 14830, "fully": 6459, "Ġord": 22474, "Ġproblems": 1272, "ruction": 31470, "ham": 1908, "ĠCount": 12440, "lege": 37777, "Ġleaders": 917, "ET": 3935, "lev": 9525, "Ġdeep": 1844, "ological": 9779, "ese": 4468, "haps": 34398, "ĠSome": 993, "Ġpers": 20187, "Ġcontract": 1355, "Ġrelationship": 1291, "sp": 4182, "oud": 6998, "Ġbase": 1542, "48": 3818, "mit": 8974, "Ad": 9167, "ancial": 47142, "Ġconsum": 20411, "Ġpotential": 801, "Ġlangu": 24891, "rem": 5593, "eth": 4774, "Ġrelig": 41232, "ressed": 10887, "66": 4280, "Ġlink": 3104, "Ġlower": 795, "ayer": 19777, "ĠJune": 502, "Ġfem": 24295, "unt": 5973, "erc": 11180, "urd": 6831, "Ġcontact": 1511, "Ġill": 4812, "Ġmother": 985, "Ġestab": 28769, "htt": 49491, "ĠMarch": 494, "ĠBro": 4994, "ĠChina": 436, "Ġ29": 1132, "Ġsqu": 9316, "Ġprovided": 1286, "Ġaverage": 674, "asons": 32781, "Ġ2011": 1466, "Ġexam": 10743, "lin": 2614, "55": 3118, "ned": 7456, "Ġperfect": 1969, "Ġtou": 40667, "alse": 33896, "ux": 7073, "Ġbuy": 907, "Ġshot": 738, "Ġcollect": 5555, "Ġphot": 17190, "Ġplayed": 702, "Ġsurpr": 47149, "Ġofficials": 503, "Ġsimple": 2007, "avy": 19909, "Ġindustry": 539, "Ġhands": 1420, "ground": 13981, "Ġpull": 2999, "Ġround": 1062, "Ġuser": 3018, "Ġrange": 1186, "uary": 16705, "Ġprivate": 940, "ops": 5090, "ees": 5421, "Ġways": 1319, "ĠMich": 9605, "Ġveh": 27102, "Ġexcept": 4682, "Ġterms": 1110, "imum": 40133, "pper": 5961, "ION": 7744, "ores": 4765, "ĠDragon": 15522, "oul": 5156, "Ġden": 3069, "Ġperformance": 819, "Ġbill": 1087, "cil": 17286, "47": 3706, "Ġenvironment": 1737, "Ġexc": 12562, "add": 4917, "Ġworth": 966, "Ġpict": 40123, "Ġchance": 778, "Ġ2018": 199, "bor": 12514, "Ġspeed": 2078, "iction": 26579, "Ġalleg": 38147, "ĠJapan": 1429, "atory": 5257, "reet": 14081, "Ġmatch": 914, "ĠII": 3082, "Ġstru": 39180, "order": 10337, "Ġste": 11235, "Ġliving": 1207, "Ġstruct": 29916, "ino": 1696, "Ġsepar": 31207, "hern": 16494, "Ġresponse": 1263, "Ġenjoy": 2254, "Ġvia": 1241, "AD": 2606, "uments": 30179, "acebook": 49657, "Ġmember": 919, "ibr": 11804, "izing": 2787, "Ġtool": 3944, "ĠMon": 3385, "ĠWhile": 616, "hood": 8489, "ĠAng": 7413, "ĠDef": 7858, "Ġoffer": 904, "Tr": 12667, "aur": 8616, "Ġturned": 1224, "ĠJuly": 550, "down": 3955, "anced": 16325, "Ġrecently": 682, "ĠEar": 17637, "Ġce": 8635, "ĠStar": 2141, "ĠCong": 12249, "rought": 27400, "Ġblood": 1925, "Ġhope": 1034, "Ġcomment": 1129, "aint": 12042, "Ġarri": 37530, "iles": 4755, "Ġparticip": 25197, "ought": 12807, "ription": 49468, "08": 3669, "49": 3414, "Ġgave": 851, "Ġselect": 5163, "Ġkilled": 848, "sych": 44652, "Ġgoes": 1411, "ij": 2161, "Ġcoll": 9843, "Ġimpact": 913, "atives": 11649, "ĠSer": 6251, "09": 3546, "ĠAugust": 830, "Ġboy": 2143, "de": 2794, "ĠDes": 4762, "Ġfelt": 1299, "US": 3048, "Ġexpected": 421, "Ġimage": 2274, "ĠMark": 1190, "ccording": 49735, "oice": 41689, "EC": 3586, "ĠMag": 3771, "ened": 4490, "hold": 4208, "ĠPost": 1869, "Ġprevent": 2097, "No": 3084, "Ġinvolved": 963, "Ġeyes": 2473, "Ġquickly": 1335, "At": 3750, "unk": 6435, "Ġbehav": 49407, "Ġur": 11540, "Ġled": 669, "come": 19807, "ey": 2981, "Ġcandid": 14039, "Ġearlier": 656, "Ġfocus": 1056, "ety": 12637, "Pro": 10653, "ledge": 21945, "ixed": 24194, "illed": 12146, "Ġpopular": 1406, "AP": 591, "Ġsett": 34491, "light": 6991, "Ġvarious": 1337, "inks": 12935, "Ġlevels": 1389, "Ġroad": 921, "ellig": 37448, "ables": 6058, "hel": 4393, "ittee": 45798, "ĠGener": 15745, "ype": 37356, "Ġheard": 1317, "icles": 20846, "Ġmis": 3834, "Ġusers": 1434, "ĠSan": 764, "Ġimprove": 1477, "Ġfather": 1150, "Ġsearch": 1707, "They": 1213, "vil": 16756, "Ġprofess": 29200, "Ġknew": 1467, "Ġloss": 872, "Ġevents": 1061, "65": 3506, "Ġbillion": 325, "07": 3570, "02": 4197, "ĠNews": 491, "ĠAM": 3326, "Ġcover": 1719, "where": 8569, "ension": 17699, "Ġbott": 17539, "Ġareas": 911, "ences": 8457, "ope": 9877, "ĠTwitter": 599, "ael": 11089, "Ġgets": 1516, "ĠGoogle": 1204, "Ġsn": 4543, "iant": 9488, "Ġvote": 900, "Ġnearly": 823, "Ġincluded": 1165, "Ġrecogn": 15603, "zz": 7399, "mm": 5471, "aled": 9389, "Ġhappened": 1102, "04": 3387, "Ġhot": 2131, "Ġwhose": 1060, "Ġcivil": 2366, "Ġsuff": 15544, "oes": 8013, "itiz": 30362, "ĠSyri": 35938, "Ġrespond": 2519, "Ġhon": 11006, "Ġfeatures": 1575, "Ġeconomic": 776, "ĠApril": 587, "rim": 6103, "Ġtechnology": 806, "Ġoption": 1973, "aging": 6257, "Ġpurch": 37684, "Re": 9064, "Ġlat": 16619, "chie": 17309, "isl": 13714, "Ġrecomm": 37573, "uf": 2951, "Ġtraining": 1058, "Ġeffects": 3038, "Ġfast": 1769, "Ġ2010": 1824, "Ġoccur": 5948, "Ġwebsite": 998, "Ġemail": 1047, "Ġsens": 18105, "ech": 7529, "Ġoil": 681, "Ġinflu": 17471, "Ġcurrently": 855, "ĠSch": 1811, "ĠAdd": 4287, "Ġgoal": 724, "Ġscient": 47556, "Ġconv": 15380, "100": 1866, "emy": 27171, "Ġdecided": 1276, "Ġtravel": 1504, "Ġmention": 4521, "LL": 6006, "03": 3933, "Ġelection": 729, "Ġphone": 1028, "Ġlooks": 1326, "Ġsituation": 1068, "Ġcy": 19258, "Ġhor": 17211, "bed": 5134, "ĠCourt": 837, "aily": 14671, "aves": 9419, "Ġquality": 1318, "ĠComp": 10081, "wise": 10715, "Ġtable": 2103, "Ġstaff": 813, "ĠWind": 7247, "ett": 2645, "Ġtried": 1381, "idered": 21732, "Ġaddition": 1285, "Ġbox": 2233, "Ġlack": 1762, "arily": 19048, "Ġwide": 1810, "Ġmid": 1084, "Ġboard": 792, "ysis": 26499, "Ġanti": 1475, "ha": 1999, "Ġdig": 8512, "ening": 4226, "Ġdro": 13868, "Con": 9157, "68": 4671, "Ġslow": 2635, "based": 805, "sequ": 33430, "Ġpath": 2718, "Ex": 9089, "aker": 4218, "Ġworked": 1006, "Ġpen": 7670, "Ġengine": 3819, "Ġlooked": 1415, "ĠSuper": 1582, "ĠServ": 16691, "Ġvictim": 1802, "Un": 9685, "Ġproperty": 1038, "Ġintrodu": 33605, "Ġexecut": 38902, "ĠPM": 2784, "Le": 10350, "Ġcolor": 3195, "ĠMore": 901, "Ġ60": 1191, "Ġnetwork": 1546, "Ġdate": 1248, "cul": 13300, "idge": 15379, "Ġextra": 1823, "31": 2983, "Ġsle": 18388, "67": 4111, "Ġwond": 43236, "Ġreports": 690, "just": 8987, "ĠAustral": 38312, "Ġcapital": 812, "Ġens": 23974, "Ġcommand": 5936, "Ġallowed": 1220, "Ġprep": 12760, "Ġcapt": 13363, "hib": 25068, "Ġnumbers": 1530, "chan": 14717, "Ġfair": 2105, "mp": 6195, "oms": 6806, "Ġreach": 1338, "With": 3908, "tain": 22003, "Ġbroad": 4007, "Ġcouple": 891, "ecause": 49414, "lying": 13010, "ĠFeb": 1927, "Ġscreen": 2441, "Ġlives": 1074, "Ġprior": 2052, "ĠCongress": 1148, "Ar": 8138, "Ġapproach": 1548, "Ġemer": 20583, "aries": 5119, "ĠDis": 6310, "serv": 31499, "ĠNe": 3864, "Ġbuilt": 1490, "cies": 32510, "Ġrepe": 25633, "Ġrules": 1492, "force": 9091, "ĠPal": 4677, "Ġfinancial": 613, "Ġconsidered": 1687, "ĠChar": 7275, "nces": 47569, "ĠIS": 3703, "Ġbrought": 1146, "Ġbi": 4003, "iers": 4733, "ĠSim": 6202, "OP": 5733, "Ġproducts": 785, "Ġvisit": 825, "Ġdocument": 3780, "Ġconduct": 2883, "Ġcompletely": 2198, "ining": 6074, "ĠCalif": 6863, "ibly": 19031, "Ġwritten": 1982, "ĠTV": 1012, "ements": 11217, "Ġdraw": 2451, "One": 3762, "Ġpublished": 1027, "Ġsecret": 3556, "rain": 9946, "het": 4626, "ĠFacebook": 622, "onday": 46328, "ĠUp": 3105, "Ġsexual": 1363, "Ġthous": 49412, "ĠPat": 3769, "Ġess": 37214, "Ġstandard": 2526, "Ġarm": 3124, "ges": 5641, "ection": 20970, "Ġfell": 1064, "Ġforeign": 1093, "ani": 1543, "ĠFriday": 273, "Ġregular": 1675, "inary": 15548, "Ġincreased": 1130, "Ġusually": 2333, "Ġdemon": 12959, "Ġdark": 2933, "Ġadditional": 943, "rol": 9396, "ĠOf": 1525, "Ġproduction": 931, "!!": 12846, "undred": 38750, "Ġinternational": 758, "idents": 22612, "ĠFree": 3130, "roup": 20833, "Ġrace": 1015, "Ġmach": 20399, "Ġhuge": 1307, "All": 3684, "lear": 35467, "ovember": 46436, "Ġtown": 1139, "Ġattention": 1503, "ĠOff": 4995, "yond": 32565, "ĠThen": 1892, "field": 1399, "Ġterror": 5231, "raz": 9919, "ĠBo": 3542, "Ġmeeting": 529, "ĠPark": 861, "Ġarrest": 2237, "Ġfear": 2490, "Ġaw": 19267, "ĠVal": 3767, "oring": 5137, "',": 3934, "Ġextreme": 5004, "arr": 6166, "Ġworkers": 1138, "After": 4993, "Ġ31": 1105, "net": 4135, "ament": 5511, "Ġdirectly": 2024, "Ġpopulation": 1956, "ube": 13345, "ĠOctober": 779, "ĠIN": 2808, "ĠJanuary": 644, "59": 4156, "ĠDavid": 871, "Ġcross": 2116, "cember": 47153, "ĠFirst": 1234, "Ġmessage": 1579, "irit": 30710, "Ġnation": 1226, "Ġpoll": 2902, "isions": 12545, "Ġanswer": 1948, "ny": 2855, "isode": 48663, "Ġcarry": 2324, "ĠRussia": 798, "Ġhear": 1798, "ength": 49426, "roy": 6506, "Ġnatural": 1632, "inally": 30672, "Ġdog": 2335, "mitted": 13979, "Ġtrade": 721, "Ġsubst": 32493, "Ġmultiple": 1533, "ĠAfric": 44285, "Ġfans": 841, "Ġsort": 2345, "Ġglobal": 720, "ication": 14086, "ĠWed": 9373, "ara": 1742, "Ġachie": 43842, "Ġlanguage": 2777, "vey": 9932, "Ġtal": 15079, "Ġnecessary": 2139, "Ġdetails": 1254, "Ġsen": 22583, "ĠSund": 12282, "ĠReg": 6304, "ĠRec": 7382, "06": 4124, "Ġsil": 11052, "ressive": 22075, "Ġmedical": 1131, "unch": 11842, "ornia": 43052, "Ġund": 2432, "fort": 12322, "ocks": 6368, "ĠMonday": 302, "uesday": 47478, "craft": 17536, "77": 4718, "urt": 7363, "Ġver": 4342, "ĠHill": 1934, "Ġreceive": 1325, "Ġmorning": 662, "estern": 47723, "Ġbank": 827, "Ġsat": 4005, "irth": 24208, "ĠHigh": 755, "Ġdevice": 2187, "ĠTHE": 1941, "ĠCenter": 824, "Ġsafe": 1522, "Ġple": 16415, "ĠCanada": 896, "Ġsystems": 1743, "Ġassist": 3991, "Ġsurv": 48642, "Ġbattle": 2168, "ĠSoc": 14585, "vertis": 24673, "She": 2515, "Ġpaper": 2225, "Ġgrowth": 434, "Ġcast": 2471, "Sc": 12645, "Ġplans": 708, "lled": 9970, "Ġparts": 1667, "Ġwall": 2204, "Ġmovement": 2079, "Ġpractice": 1524, "imately": 44900, "Ġdisplay": 2332, "Ġsometimes": 2128, "omp": 7474, "ĠPaul": 1206, "ĠYes": 3216, "king": 7037, "58": 4432, "oly": 15022, "Ġson": 979, "Ġavoid": 1877, "okes": 6568, "ĠJew": 16495, "Ġtowards": 1567, "asc": 8631, "Ġ//": 21277, "ĠKore": 18650, "Ġtalking": 1686, "Ġcorrect": 4577, "Ġspent": 1240, "icks": 8370, "iable": 13315, "eared": 24845, "Ġterm": 1385, "Ġwants": 1072, "oming": 9410, "Ġut": 16080, "Ġdoub": 26463, "Ġforces": 1572, "Ġplease": 2540, "69": 4563, "ĠNovember": 759, "atform": 47346, "ondon": 24639, "Ġones": 1980, "Ġimmediately": 1320, "ĠRussian": 1083, "ĠMet": 4369, "Ġdeg": 31295, "Ġparents": 1041, "CH": 3764, "ĠAmericans": 1791, "aly": 7776, "ĠMod": 10274, "Ġshown": 2343, "Ġconditions": 1274, "Ġstuff": 2682, "Ġreb": 5898, "ĠYour": 2486, "Ġincludes": 1171, "nown": 42114, "ĠSam": 1960, "Ġexperien": 40850, "mission": 12478, "ĠEven": 1648, "aught": 19906, "Ġannounced": 585, "ĠRepublican": 1172, "Ġdetermin": 26948, "Ġdescribed": 1602, "ĠCounty": 413, "()": 43048, "Ġdoor": 1883, "Ġchanged": 1714, "Ġneigh": 48704, "ĠHere": 1398, "Ġclean": 2382, "Ġpan": 5730, "ĠDecember": 719, "ĠEuropean": 796, "iring": 9798, "apter": 48575, "Ġclub": 950, "ĠTuesday": 294, "Ġpaid": 1199, "ĠNet": 5008, "Ġattacks": 1912, "Ġcharacters": 3768, "Ġalone": 1937, "Ġdirector": 736, "dom": 12623, "Ġ35": 1718, "Ġload": 7511, "Ġrout": 19141, "ĠCalifornia": 886, "Ġfinally": 1747, "Ġrac": 13816, "Ġcontr": 17035, "Ġexactly": 2230, "resh": 23053, "pri": 13718, "ĠIslam": 7503, "Ġnature": 2574, "Ġcareer": 756, "Ġlatest": 665, "Ġconvers": 28726, "ĠSl": 4424, "pose": 21519, "cient": 29318, "ĠInc": 603, "ivity": 9866, "88": 4652, "ĠAtt": 7279, "ĠMor": 4266, "nesday": 46836, "Ġweight": 2408, "ken": 6944, "Ġnote": 1591, "Ġteams": 893, "Ġ\\": 44128, "airs": 18022, "ĠGreen": 1628, "Ġhundred": 6317, "onent": 40400, "Ġstreng": 48458, "Ġconsist": 19438, "icated": 5554, "Ġregul": 40338, "Ġlic": 29768, "astic": 11599, "Ġten": 2724, "ursday": 46806, "elligence": 45852, "ously": 9412, "ĠUK": 987, "BI": 5383, "Ġcosts": 1042, "Ġindepend": 44913, "ĠAP": 1480, "Ġnormal": 2340, "Ġhom": 9486, "Ġobvious": 4678, "Ġswe": 24043, "Ġstar": 999, "Ġready": 1227, "acher": 8365, "Ġimplement": 5731, "gest": 10403, "Ġsong": 2214, "ĠGet": 2315, "ĠLab": 8250, "Ġinteresting": 2679, "using": 10928, "Ġgiving": 1311, "ĠSunday": 395, "Ġetc": 4753, "Ġmiddle": 1692, "Ġremember": 2145, "right": 4070, "osition": 21553, "utions": 15790, "Ġmax": 19220, "46": 3761, "Ġyourself": 2512, "Ġdemand": 1077, "Ġtreatment": 1416, "Ġdanger": 4854, "ĠCons": 9051, "Ġguy": 2173, "ĠBritish": 1089, "Ġphysical": 2166, "Ġrelated": 1330, "Ġremain": 1091, "Ġcouldn": 1705, "Ġrefer": 9115, "Ġcitiz": 49825, "box": 8304, "ENT": 5382, "board": 4929, "Ġinn": 22282, "IG": 5969, "ero": 5160, "ĠStreet": 852, "ospital": 44206, "rench": 18723, "chers": 7873, "Ġstra": 18052, "OL": 3384, "ager": 6988, "ĠAN": 5102, "Ġeasily": 2773, "IA": 2889, "enge": 20526, "iny": 11287, "Ġclos": 20956, "ocked": 9596, "Ġuses": 2939, "ĠCoun": 10047, "Im": 20470, "uild": 46002, "??": 28749, "more": 4321, "Ġang": 5667, "Ġwrite": 3116, "olute": 27184, "57": 4390, "Ġleader": 884, "Ġreading": 2600, "</": 49138, "Ġautom": 10948, "ests": 10092, "43": 3897, "Ġlegisl": 23241, "ĠGold": 2610, "Ġdesigned": 1887, "ĠST": 4062, "ĠLeg": 15376, "ares": 5347, "Ġbeaut": 28651, "ĠTex": 21718, "Ġappears": 2092, "Ġstrugg": 42889, "ĠRom": 7827, "Ġ00": 16273, "Ġchoice": 2031, "Ġparticularly": 1605, "ĠFrom": 1740, "oper": 8428, "ĠLondon": 928, "anned": 12788, "Ġallows": 2386, "obile": 21066, "Ġdifference": 2249, "âĢ¢": 21438, "ĠView": 3756, "ĠWednesday": 307, "Ġalthough": 1712, "Ġrelative": 5407, "Ġapplication": 2502, "atever": 49716, "Ġaren": 2025, "Ġmyself": 2185, "Ġimag": 26031, "Ġdise": 40177, "Ġsociety": 2313, "Ġfrequ": 36555, "ĠEnglish": 2370, "Ġpoor": 2129, "ĠDay": 1053, "Ġwriting": 2410, "Ġseven": 707, "Ġstarting": 1158, "Ġbud": 18464, "Ġprint": 5780, "ĠTrans": 5428, "ufact": 48534, "ĠStud": 24911, "new": 4651, "Ġcrim": 29322, "Ġgives": 2029, "Ġcool": 3035, "ae": 4791, "iance": 9862, "ĠGeneral": 1292, "Ġthinking": 2053, "Ġsave": 1871, "Ġlimited": 1804, "ĠParty": 1643, "Ġmeaning": 3099, "pen": 9675, "owers": 9945, "ĠJack": 2722, "EM": 5330, "Ġnice": 2579, "rupt": 14709, "Ġgas": 1123, "Ġeight": 799, "Ġfeet": 1730, "Ġeffort": 1351, "Ġign": 29852, "icit": 17022, "Bl": 12654, "coin": 16973, "Ġopin": 42467, "Ġbrain": 2900, "While": 5771, "hest": 20921, "ĠThursday": 296, "Ġwouldn": 1979, "aughter": 35609, "Ġtouch": 2842, "lements": 24041, "Ġstudies": 3218, "Ġcenter": 1312, "cont": 10800, "orge": 26875, "Ġcomputer": 3034, "Ġinvestigation": 803, "Pl": 16213, "orks": 41250, "Ġ2008": 2266, "Ġincreasing": 2284, "Ġstore": 1400, "Ġcomments": 1450, "Ġbal": 17832, "men": 2262, "Ġdoll": 19495, "Ġliber": 25232, "Ġwife": 1141, "Ġlaws": 2074, "aturday": 47035, "itness": 33909, "Ġmodern": 2297, "ĠSk": 4058, "Ġadministration": 942, "Ġopportunity": 945, "Ġsal": 6641, "Ġpowerful": 2247, "My": 2387, "Ġclaims": 1449, "ĠEarth": 3875, "ords": 15047, "Ġtitle": 1270, "Ġesc": 11363, "name": 13650, "Not": 7199, "omen": 14900, "Ġbeyond": 1684, "Ġcamer": 34174, "Ġsell": 1331, "itute": 26261, "earch": 48114, "Ġappl": 45432, "iment": 8913, "42": 3714, "ĠArt": 3292, "Ġunf": 9515, "Ġviolence": 1476, "urg": 7150, "ĠEast": 953, "Ġcompared": 1118, "Ġoptions": 1735, "Ġthroughout": 1328, "Ġvs": 1954, "igr": 23704, ".[": 31274, "aches": 11322, "78": 5479, "Ġfiles": 6773, "FL": 7613, "EL": 3721, "arian": 9063, "ĠJames": 957, "ĠAir": 1754, "anch": 10459, "Ġdetail": 4617, "Ġpiece": 2125, "PS": 3888, "Ġnamed": 1440, "Ġeducation": 1265, "Ġdrive": 1305, "Ġitems": 1964, "Ġstudent": 1294, "iced": 12646, "::": 38304, "ico": 2684, "Ġthrow": 3211, "Ġscene": 1310, "Ġcomplex": 2632, "Ġ2009": 2338, "Ġprec": 16057, "ĠBre": 5811, "79": 5220, "Ġconcept": 4286, "Ġstatus": 2194, "aming": 9708, "Ġdied": 962, "Ġknowledge": 2655, "Ġbeginning": 1786, "OD": 7111, "ruary": 48540, "Ġcertainly": 1819, "Ġguys": 1669, "Ġslight": 7019, "inn": 5246, "ounds": 12363, "Ġfine": 2051, "Ġfat": 5886, "ications": 29758, "Ġperhaps": 2532, "ĠAnt": 3702, "Ġincome": 1425, "Ġhttps": 1205, "Ġmajority": 1647, "ports": 8303, "ston": 6712, "Ġgreater": 2388, "Ġfeed": 3993, "entially": 16722, "Ġsafety": 1078, "Ġunique": 2216, "andom": 46861, "Ġgone": 1613, "Ġshowed": 969, "Ġhistor": 23671, "Ġcounter": 3231, "ius": 6125, "ida": 4347, "Ġleading": 981, "ipe": 11387, "Ġsend": 2142, "ĠDonald": 807, "erve": 14477, "Ġdefense": 1443, "inese": 33965, "Ġyes": 4420, "ĠFire": 1833, "ĠMuslim": 3346, "raq": 44984, "Ġcontinued": 1143, "osh": 5212, "Ġprovides": 1639, "Ġprison": 1789, "ĠPre": 5048, "Ġhappy": 1372, "Ġeconomy": 866, "Ġtrust": 2416, "ags": 8299, "ĠGame": 2436, "Ġweapons": 2398, "uman": 15116, "ĠCle": 8388, "itation": 12257, "Ġanalysis": 1966, "ĠTimes": 1513, "Ġscience": 2866, "->": 46613, "Ġfigure": 1955, "Ġdisapp": 49053, "enty": 24997, "Ġsoftware": 2257, "Ġult": 20265, "Ġofficers": 1024, "New": 4030, "Is": 6209, "Ġremains": 1189, "ĠIndia": 666, "Ġpsych": 21968, "rief": 24062, "Ġcat": 4758, "esc": 10338, "Ġobserv": 20717, "Ġstage": 1289, "ĠDark": 10524, "Ġenter": 2914, "change": 14035, "Ġpassed": 1595, "Ġdespite": 1135, "ĠOut": 2548, "Ġmovie": 1569, "rs": 4926, "Ġvoice": 2236, "mine": 13523, "ĠPlay": 3902, "Ġtoward": 1706, "ĠTer": 5094, "Ġregion": 976, "Ġvalues": 3266, "orters": 10236, "Ġmount": 14206, "Ġofficer": 1036, "ĠOther": 1944, "ban": 7384, "Ġhous": 46935, "wood": 1845, "room": 4294, "IV": 6372, "ĠSun": 2083, "see": 7048, "ĠOver": 2306, "rog": 10191, "90": 3248, "Ġlay": 4477, "ĠTur": 7422, "awn": 11716, "Ġpressure": 1164, "ĠSub": 4052, "Ġbooks": 2799, "edom": 45556, "ĠSand": 4219, "AA": 5596, "ago": 6643, "Ġreasons": 2188, "ford": 1891, "Ġactivity": 1940, "UT": 6972, "Now": 5975, "ĠSenate": 1112, "cell": 7841, "night": 8498, "Ġcalls": 1519, "inter": 8007, "Ġletter": 1601, "ĠRob": 3005, "ĠJe": 9925, "Ġchoose": 2807, "ĠLaw": 2589, "Get": 14181, "Be": 9325, "Ġrob": 16785, "Ġtypes": 3505, "Ġplatform": 1761, "Ġquarter": 297, "RA": 4396, "ĠTime": 3421, "Ġmaybe": 2085, "ĠCr": 5309, "95": 4015, "pre": 5234, "Ġmoving": 1375, "Ġlif": 14241, "Ġgold": 1637, "Ġsom": 16487, "Ġpatients": 1484, "Ġtruth": 3157, "ĠKe": 3350, "urance": 12590, "antly": 12106, "mar": 3916, "Ġcharge": 1427, "ĠGreat": 2860, "Ġcele": 20661, "--------------------------------": 46939, "Ġrock": 3152, "roid": 36866, "ancy": 9875, "Ġcredit": 1361, "aud": 5247, "By": 2765, "ĠEvery": 4337, "Ġmoved": 1410, "inger": 6082, "ribution": 35719, "Ġnames": 2523, "Ġstraight": 1359, "ĠHealth": 1309, "ĠWell": 2647, "Ġfeature": 1905, "Ġrule": 2178, "Ġsche": 30315, "inated": 9339, "ĠMichael": 988, "berg": 2865, "41": 4006, "iled": 6691, "band": 9484, "Ġclick": 3753, "ĠAngel": 6896, "onents": 19245, "ÂŃ": 5514, "ĠIraq": 3345, "ĠSaturday": 378, "Ġaware": 2542, "part": 7755, "Ġpattern": 6184, "OW": 4581, "ĠLet": 2780, "Ġgrad": 12003, "igned": 9044, "Ġassociated": 3059, "Ġstyle": 2496, "no": 2362, "iation": 16546, "aith": 22724, "ilies": 28694, "Ġstories": 1652, "uration": 27975, "Ġindividuals": 2172, "ĠâĢ¦": 1555, "miss": 17745, "ĠAssoci": 36976, "ishing": 6234, "aby": 14268, "Ġsummer": 1035, "ĠBen": 1664, "Ġ32": 2107, "Ġarch": 9599, "uty": 27237, "ĠTexas": 1184, "hol": 9649, "Ġfully": 1950, "Ġmill": 7259, "Ġfollowed": 1432, "ĠBill": 1585, "ĠIndian": 1362, "ĠSecret": 8350, "ĠBel": 4231, "ĠFebruary": 902, "Ġjobs": 1315, "Ġseemed": 2551, "ĠGovern": 22595, "ipped": 8246, "Ġreality": 2015, "Ġlines": 2301, "Ġpark": 2221, "Ġmeasure": 2450, "ĠOur": 1541, "IM": 3755, "Ġbrother": 2138, "Ġgrowing": 1197, "Ġban": 2020, "Ġestim": 36019, "Ġcry": 8930, "ĠSchool": 835, "Ġmechan": 38658, "ĠOF": 3243, "ĠWindows": 6039, "Ġrates": 1162, "ĠOh": 5534, "Ġpositive": 1313, "Ġculture": 2040, "istics": 16307, "ica": 2426, "Ġhar": 12280, "ya": 2636, "itely": 41776, "ipp": 5600, "Ġmap": 5456, "encies": 14768, "ĠWilliam": 2897, "II": 11194, "akers": 6650, "56": 4419, "ĠMart": 5465, "ĠRem": 8022, "Ġaltern": 25935, "itude": 11964, "Ġcoach": 704, "rowd": 34298, "Don": 6766, "Ġkids": 1159, "Ġjournal": 8812, "Ġcorpor": 22997, "Ġfalse": 3950, "Ġweb": 3748, "Ġsleep": 3581, "Ġcontain": 5585, "Ġsto": 20572, "Ġbed": 3267, "iverse": 32273, "ĠRich": 6341, "ĠChinese": 1111, "Ġpun": 7434, "Ġmeant": 2425, "known": 6421, "Ġnotice": 3120, "Ġfavorite": 2674, "aven": 10570, "Ġcondition": 1881, "Ġpurpose": 3508, "))": 35122, "Ġorganization": 1651, "Ġchalleng": 49545, "Ġmanufact": 48361, "Ġsusp": 35839, "ĠAc": 6208, "Ġcritic": 7745, "unes": 16454, "uclear": 13886, "Ġmer": 9374, "vention": 20874, "Ġ80": 1812, "Ġmist": 12241, "ĠUs": 4890, "ĠTor": 6623, "http": 8166, "olf": 14927, "Ġlarger": 2514, "Ġadvant": 46232, "Ġresear": 39317, "Ġactions": 2163, "ml": 18517, "Ġkept": 1682, "Ġaim": 4374, ",'": 1598, "col": 9119, "Ġbenefits": 1795, "ifying": 4945, "Ġactual": 3031, "ĠInternational": 1016, "Ġvehicle": 1155, "Ġchief": 834, "Ġefforts": 1170, "ĠLeague": 815, "ĠMost": 1993, "Ġwait": 2067, "Ġadult": 4194, "Ġoverall": 1374, "Ġspeech": 1901, "Ġhighly": 2200, "Ġfemale": 2182, "Ġerror": 5849, "Ġeffective": 2375, "54": 4283, "Ġencour": 47841, "well": 3056, "Ġfailed": 1447, "Ġconserv": 23923, "Ġprograms": 1767, "Ġtrou": 21183, "Ġahead": 789, "500": 1497, "vertisement": 49883, "IP": 3808, "ĠFound": 11911, "pir": 17303, "Ġ%": 7606, "Ġcrime": 1846, "ander": 6072, "Ġlocation": 2259, "ĠIran": 1603, "Ġbehavior": 3650, "azing": 22736, "Ġrare": 3159, "Ġemb": 18484, "Ġcaused": 1726, "Ġship": 3627, "Ġactive": 2171, "Ġcontribut": 42423, "Ġgreen": 2272, "Ġacqu": 19071, "Ġreflect": 4227, "venue": 32497, "Ġfirm": 933, "Ġbirth": 3113, "].": 8174, "Ġclearly": 2563, "Ġemot": 36355, "Ġagency": 1218, "riage": 35859, "Ġmemory": 3783, "98": 5208, "SA": 3603, "ĠSee": 4250, "acing": 7575, "CC": 3376, "Ġbiggest": 934, "Ġrap": 11619, "Ġbasic": 3280, "Ġband": 1971, "eat": 21046, "Ġsuspect": 1985, "ĠMac": 1775, "Ġ90": 1814, "mark": 6920, "istan": 7566, "Ġspread": 2504, "ams": 7042, "ki": 3144, "asy": 17400, "rav": 6472, "ĠRober": 44607, "Ġdemonstr": 30673, "rated": 8358, "Ġabsolute": 7833, "Ġplaces": 2127, "Ġimpl": 12956, "ibrary": 44138, "Ġcards": 3591, "Ġdestroy": 8439, "Ġvirt": 36704, "vere": 12081, "Ġappeared": 1382, "yan": 7010, "point": 2300, "Ġbeg": 21422, "Ġtemper": 18586, "spe": 18462, "anted": 17184, "ears": 12541, "ĠDirect": 10480, "Ġlength": 5933, "Ġblog": 5059, "amb": 3146, "Ġinteg": 20590, "Ġresources": 1915, "acc": 7904, "iful": 16170, "Ġspot": 1514, "Ġforced": 1654, "Ġthousands": 1583, "ĠMinister": 692, "Ġqual": 22043, "ĠFrench": 1515, "atically": 23050, "Ġgenerally": 3489, "Ġdrink": 4076, "Ġthus": 4634, "IL": 3063, "odes": 19160, "Ġappropri": 40194, "ĠRead": 1163, "Ġwhom": 2661, "Ġeye": 2295, "Ġcollege": 1564, "Ġ45": 2248, "irection": 43606, "Ġensure": 1306, "Ġapparent": 5890, "iders": 8936, "Ġreligious": 3458, "Ġminor": 3694, "olic": 12589, "Ġtro": 14168, "ĠWhy": 2612, "ribute": 25006, "met": 5646, "Ġprimary": 2270, "Ġdeveloped": 2226, "Ġpeace": 1987, "Ġskin": 3024, "ste": 6526, "ava": 8604, "Ġblue": 2440, "Ġfamilies": 1232, "Ġir": 10209, "Ġapply": 3253, "Ġinform": 6296, "ĠSmith": 1259, "CT": 7164, "ii": 4132, "Ġlimit": 3000, "Ġresist": 11942, "................": 47793, "umn": 24422, "Ġconflic": 46713, "Ġtwe": 38125, "udd": 7027, "ĠTom": 1560, "Ġliter": 30193, "que": 3407, "bon": 12573, "Ġhair": 2549, "Ġeventually": 2140, "Ġpus": 32349, "Ġhelped": 1147, "Ġagg": 28940, "orney": 42276, "ĠApple": 1257, "Ġfit": 2564, "ĠSur": 6544, "Ġprem": 14366, "Ġsales": 647, "Ġseconds": 2397, "Ġstrength": 2707, "Ġfeeling": 2157, "¿½": 49916, "Ġtour": 2106, "Ġknows": 2215, "oom": 11691, "Ġexerc": 42275, "Ġsomew": 47794, "ï¿½": 21955, ">>": 44226, "Ġspokes": 31950, "Ġideas": 2956, "Ġregist": 19886, "soft": 24810, "ĠDel": 3011, "ĠPC": 4985, "Ġpropos": 44779, "Ġlaunch": 1709, "Ġbottom": 2576, "TH": 3732, "ĠPlease": 3401, "vest": 13493, "itz": 4494, "ĠInter": 3870, "Ġscript": 8543, "Ġrat": 12378, "arning": 47433, "Ġil": 7675, "ĠJer": 12484, "ĠAre": 3945, "Ġwhatever": 3046, "oken": 22036, "cience": 30836, "Ġmode": 5745, "Ġagree": 2854, "Ġsources": 1715, "Ġinitial": 2557, "Ġrestrict": 14058, "Ġwonder": 5170, "usion": 15727, "####": 49629, "ĠSil": 8897, "ville": 1352, "Ġburn": 7403, "tw": 17137, "asion": 27720, "ĠÂ£": 984, "Ġnor": 3486, "uing": 12448, "Ġreached": 1348, "Ġsun": 3778, "Ġcateg": 42881, "igration": 33836, "Ġcook": 7142, "Ġpromot": 46964, "Ġmale": 2943, "Ġclimate": 2147, "Ġfix": 4190, "Ġalleged": 1697, "UR": 2492, "alled": 9315, "Ġimages": 3156, "Cont": 26412, "ota": 6804, "Ġschools": 1304, "ios": 4544, "Ġdrop": 1874, "Ġstream": 4615, "ĠMo": 3713, "Ġpreviously": 1433, "aling": 8279, "Ġpet": 4716, "Ġdouble": 1457, "Ġ(@": 838, "annel": 28189, "Ġdefault": 6814, "ties": 23664, "Ġrank": 7938, "ĠDec": 1502, "ĠCouncil": 1080, "Ġweapon": 4876, "Ġstock": 388, "Ġanaly": 23815, "ĠStr": 5997, "Ġpicture": 2170, "ĠPolice": 522, "ference": 23861, "Ġcentury": 3220, "Ġcitizens": 2286, "Ġonto": 2500, "Ġexpand": 3003, "Ġhero": 6132, "ĠSol": 4856, "Ġwild": 3418, "Ġupdate": 2935, "Ġcustomers": 916, "ront": 23406, "def": 9232, "Ġlik": 26669, "Ġcriminal": 1837, "ĠChristian": 2412, "SP": 4186, "76": 5067, "Ġleaving": 1618, "Ġotherwise": 3680, "ĠDist": 11281, "Ġbasis": 1453, "52": 4429, "53": 4540, "icip": 24695, "ĠBer": 4323, "Ġrecommend": 5940, "Ġfloor": 1929, "Ġcrowd": 2180, "oles": 7003, "Ġ70": 1510, "Ġcentral": 1353, "ĠEv": 7652, "Ġdream": 3366, "Ġdownload": 4016, "Ġconfir": 48178, "ĠThom": 22608, "Ġwindow": 2931, "Ġhappens": 2594, "Ġunit": 1933, "Ġtend": 3805, "Ġspl": 11743, "Ġbecomes": 3374, "Ġfighting": 2190, "Ġpredict": 7006, "ĠPress": 977, "ĠPower": 3029, "Ġheavy": 2016, "aked": 8435, "Ġfan": 2378, "orter": 10679, "ategy": 41220, "BA": 3813, "izes": 7396, "Ġspend": 1930, "Here": 11773, "Ġ2007": 3010, "Ġadop": 25298, "ĠHam": 3600, "Ġfootball": 1037, "ĠPort": 2848, "oday": 23568, "51": 4708, "ampions": 34459, "Ġtransfer": 2937, "ht": 6083, "Ġ38": 2843, "term": 1279, "acity": 18583, "Ġbur": 12601, "],": 7479, "ternal": 46378, "rig": 7638, "but": 4297, "Ġtherefore": 3891, "ĠBecause": 3047, "resp": 36217, "rey": 5460, "Ġmission": 2511, "Some": 6323, "Ġnoted": 1581, "Ġassum": 46685, "Ġdisease": 2199, "Ġedit": 17668, "Ġprogress": 2017, "rd": 2586, "ĠBrown": 1547, "ocal": 21103, "Ġadding": 1271, "Ġraised": 1179, "ĠAny": 5053, "Ġtick": 10457, "Ġseeing": 1782, "ĠPeople": 1806, "Ġagreement": 1288, "Ġserver": 10228, "Ġwat": 20162, "Ġdebate": 2625, "Ġsupposed": 3518, "iling": 7022, "Ġlargest": 1154, "Ġsuccessful": 1800, "ĠPri": 9522, "ĠDemocratic": 1557, "Ġjump": 3704, "ĠSyria": 1854, "Ġowners": 2203, "Ġoffers": 1523, "Ġshooting": 1094, "Ġeffic": 20995, "sey": 4169, "Ġhaven": 2220, "verse": 15189, "tered": 10001, "ĠLight": 5737, "imal": 16980, "ĠBig": 1776, "Ġdefend": 4538, "Ġbeat": 1451, "Ġrecords": 2189, "%)": 8871, "Ġscen": 42213, "Ġemployees": 1321, "Ġdevices": 2110, "hem": 9506, "Ġcommer": 47069, "ĠMex": 37470, "Ġbenefit": 1796, "ĠProf": 6853, "Ġilleg": 32563, "Ġsurface": 4084, "ĠAlso": 1578, "Ġharm": 4798, "ingly": 7790, "wide": 6445, "ĠAlex": 2618, "Ġshut": 2572, "ĠCur": 6781, "Ġlose": 2217, "pm": 1685, "Ġchallenge": 1539, "semb": 26660, "Ġstation": 1992, "Ġintelligence": 2316, "Ġaccur": 49060, "ĠFlor": 13219, "Ġrequires": 3441, "ĠMal": 2529, "bum": 30406, "Ġhospital": 1098, "Ġspirit": 4780, "Ġoffered": 1661, "Ġproduce": 2592, "ĠCommun": 29347, "Ġcreating": 2351, "Ġcris": 37968, "spect": 25594, "Ġended": 1249, "Ġdaily": 1230, "Ġvoters": 1983, "lands": 8391, "ias": 5003, "ih": 4001, "ona": 4488, "Ġsmart": 2793, "ĠOffice": 1387, "ĠLord": 5736, "rial": 13700, "ĠInternet": 3742, "Ġcircum": 38529, "Ġextremely": 2778, "'.": 2652, "Ġopinion": 2979, "ĠMil": 5366, "Ġgain": 2364, "BS": 3297, "ĠFin": 6513, "yp": 18198, "Ġuseful": 5616, "Ġbudget": 1229, "Ġcomfort": 5863, "isf": 32062, "Ġbackground": 3618, "eline": 7012, "Ġepisode": 3238, "Ġenemy": 8636, "Ġtrial": 1500, "Ġestablish": 5242, "date": 10672, "ĠCap": 5133, "Ġcontinues": 1388, "Ġshowing": 2018, "ĠUnion": 1332, "with": 5632, "Ġposted": 1278, "ĠSystem": 5149, "Ġeat": 3529, "rian": 10713, "Ġrise": 1430, "ĠGermany": 1600, "ils": 5290, "Ġsigned": 1419, "Ġvill": 17676, "Ġgrand": 2821, "mor": 15188, "ĠEngland": 1156, "Ġprojects": 1377, "umber": 9936, "Ġconference": 1019, "za": 2478, "Ġresponsible": 2149, "ĠArab": 4681, "Ġlearned": 2435, "âĢĶâĢĶ": 18242, "ipping": 11813, "ĠGeorge": 1655, "OC": 4571, "Ġreturned": 1835, "ĠAustralia": 1221, "Ġbrief": 4315, "Qu": 12444, "Ġbrand": 1518, "illing": 7491, "abled": 19875, "Ġhighest": 1609, "Ġtrain": 2341, "ĠCommission": 1463, "while": 20235, "Ġnom": 22693, "ception": 20900, "Ġmut": 16119, "ĠBlue": 2692, "Ġincident": 1160, "vant": 21454, "86": 5334, "ĠID": 4576, "Ġnuclear": 1748, "74": 5243, "ĠLike": 2011, "ĠRE": 4979, "ĠMicro": 10719, "li": 3572, "mail": 6380, "Ġcharges": 1103, "89": 5046, "Ġadjust": 9160, "ado": 2102, "Ġearth": 6872, "NA": 4444, "Ġprices": 850, "PA": 3439, "Ġdraft": 2479, "Ġruns": 1237, "Ġcandidate": 1984, "enses": 21526, "Ġmanagement": 1052, "ĠPhil": 4720, "ĠMiss": 4523, "Ġteach": 6396, "gram": 28526, "Ġunderstanding": 2969, "ait": 5236, "icago": 42938, "Add": 20763, "ĠEp": 14230, "secut": 38338, "Ġseparate": 2559, "Ġinstance": 4327, "Ġeth": 25864, "Ġunless": 3867, "********": 44116, "ĠFore": 6311, "inate": 13014, "Ġoperations": 1414, "Sp": 12582, "Ġfaith": 3975, "gar": 6276, "ĠChurch": 2197, "ronic": 18731, "Ġconfig": 40220, "osure": 42971, "Ġactivities": 1713, "Ġtraditional": 2065, "Ġ36": 2491, "Ġdirection": 2698, "Ġmachine": 3563, "Ġsurround": 21104, "Ġpush": 1920, "unction": 38665, "ĠEU": 1281, "Ġeasier": 3013, "Ġargument": 4795, "GB": 4377, "Ġmicro": 5177, "Ġspending": 1408, "izations": 18391, "Ġtheory": 6680, "adow": 26726, "Ġcalling": 1765, "ĠLast": 1426, "Ġder": 1935, "Ġinfluence": 2712, "Ġcommit": 6225, "Ġphoto": 1345, "Ġunc": 16511, "istry": 20217, "gn": 16993, "aste": 14631, "acks": 3400, "Ġdisp": 11734, "ady": 8772, "do": 5016, "ĠGood": 2497, "Ġ`": 22209, "Ġwish": 2813, "Ġrevealed": 1487, "ÂłÂł": 50142, "lig": 17218, "Ġenforce": 10914, "ĠCommittee": 1674, "Ġchem": 28033, "Ġmiles": 1788, "Ġinterested": 2509, "Ġsolution": 2472, "icy": 24363, "inct": 24115, "Ġ->": 43839, "ĠDet": 11185, "Ġremoved": 2928, "Ġcompar": 36601, "eah": 41414, "Ġplant": 2195, "ĠSince": 1773, "Ġachieve": 3042, "Ġadvantage": 2093, "Ġslightly": 2829, "bing": 6721, "Ġplaced": 2325, "under": 5087, "2015": 14420, "ĠMad": 4145, "Ġtim": 15679, "oses": 18575, "Ġcru": 11806, "ĠRock": 2751, "Ġmostly": 2260, "Ġnegative": 2430, "Ġsetting": 2749, "Ġproduced": 2622, "Ġmur": 22802, "Ġconnection": 2748, "ĠMer": 4213, "Ġdriver": 1393, "Ġexecutive": 1031, "Ġassault": 2080, "Ġborn": 2421, "ĠVer": 3060, "tained": 43672, "Ġstructure": 3184, "Ġreduce": 1888, "Ġdecades": 1724, "Ġded": 22761, "uke": 7480, "ĠMany": 1876, "idden": 41686, "Ġleague": 1267, "Se": 14696, "Ġjoin": 1962, "Ġdisco": 31562, "Ġdie": 1597, "cks": 15291, "actions": 28929, "Ġassess": 7118, "agn": 11244, "Ġgoals": 1175, "ours": 5634, "IR": 5216, "Ġsenior": 949, "iller": 8690, "mod": 14377, "ipment": 39737, "ocol": 23558, "uy": 5781, "ĠQue": 15209, "Ġparties": 1799, "irgin": 41943, "Ġlearning": 2239, "itable": 11010, "Ġstreet": 2014, "Ġcamera": 2280, "App": 19186, "Ġskills": 2417, "bre": 7805, "cious": 22191, "Ġcelebr": 23517, "ĠFranc": 17932, "Ġexisting": 2210, "Ġwilling": 2882, "lor": 10159, "Ġid": 13561, "ĠSpace": 5374, "Ġcritical": 2008, "ĠLa": 1587, "ortunately": 50034, "Ġserve": 1807, "Ġcold": 2569, "Ġspecies": 4707, "TS": 2685, "Ġanimals": 3122, "ĠBay": 1501, "Ġolder": 2530, "ĠUnder": 2096, "estic": 23862, "ĠTre": 6213, "Ġteacher": 3254, "Ġprefer": 6573, "vis": 9578, "Ġthread": 15019, "ĠMatt": 2150, "Ġmanager": 1044, "ãĥ»": 47326, "Ġprofessional": 2038, "ĠVol": 5896, "Ġnotes": 2775, "These": 4528, "ula": 5571, "Ġfresh": 2310, "ented": 9663, "uzz": 13299, "edy": 14425, "clusion": 27953, "ĠRel": 8136, "Ġdoubt": 2980, "EO": 15127, "Ġopened": 1357, "ĠBit": 15547, "Advertisement": 41187, "Ġguess": 4443, "ĠUN": 2604, "Ġsequ": 16721, "Ġexplain": 3922, "otten": 25834, "Ġattract": 5696, "aks": 6629, "Ġstring": 6755, "Ġcontext": 5377, "ossible": 31497, "ĠRepublicans": 1858, "Ġsolid": 2705, "Ġcities": 1947, "Ġasking": 1996, "Ġrandom": 9624, "ups": 4489, "uries": 12755, "arant": 19112, "dden": 39893, "gl": 7210, "ĠFlorida": 1261, "Ġdepend": 6723, "ĠScott": 1699, "Ġ33": 2357, "ĠiT": 43536, "icon": 17505, "Ġmentioned": 2801, "Ġ2000": 3788, "Ġclaimed": 1695, "Ġdefinitely": 2299, "ulf": 19509, "Ġcore": 2731, "Ġopening": 1273, "ĠConst": 11242, "which": 5488, "ĠTra": 8221, "AG": 3450, "72": 4956, "Ġbelieved": 2047, "ada": 2095, "Ġ48": 2929, "ĠSecurity": 2010, "yright": 47883, "ĠPet": 5106, "ĠLou": 9294, "Ġholding": 1826, "================": 46945, "Ġice": 2480, "Ġbrow": 27423, "Ġauthorities": 1247, "host": 11438, "word": 14742, "Ġscore": 1471, "ĠDiv": 12763, "Ġcells": 4590, "Ġtransl": 37297, "Ġneighbor": 8523, "Ġremove": 3438, "uct": 21491, "Ġdistrict": 1418, "ĠAccording": 767, "Ġworse": 3007, "Ġconcerns": 1379, "Ġpresidential": 1939, "Ġpolicies": 1986, "ĠHall": 1631, "73": 5352, "Ġhus": 33476, "AY": 2547, "Ġ2006": 3503, "ĠJud": 19691, "Ġindependent": 2222, "ĠJustice": 1659, "iliar": 40484, "print": 17265, "ighter": 24327, "Ġprotection": 2591, "zen": 7889, "Ġsudden": 7207, "house": 3138, "ĠJes": 22198, "PR": 4454, "ĠInf": 7412, "Ġbul": 22382, "Ġ_": 18134, "ĠService": 1841, "ĠPR": 4729, "Ġstrategy": 1860, "ffect": 45700, "Ġgirls": 1972, "Ġmissing": 1716, "oyal": 24533, "ĠTeam": 2711, "ulated": 12944, "Ġdat": 13516, "Ġpolitics": 2302, "abor": 15313, "According": 14693, "Ġspell": 8921, "Ġgraph": 20992, "orthern": 44963, "TC": 6078, "Ab": 13112, "Ġlabor": 4178, "isher": 13761, "Ġkick": 3151, "ĠiTunes": 14734, "Ġsteps": 2402, "poses": 38395, "Ġsmaller": 2735, "En": 16040, "bert": 6747, "Ġroll": 3825, "Ġresearchers": 2634, "Ġclosed": 1367, "Ġtransport": 4240, "Ġlawy": 47880, "________________": 42199, "ĠChicago": 1568, "Ġaspect": 6659, "Ġnone": 4146, "Ġmarriage": 3397, "96": 5607, "Ġelements": 4785, "ĠFre": 5547, "ĠSal": 2575, "Ġdram": 26274, "FC": 5268, "top": 8766, "equ": 8198, "Ġhearing": 1576, "Ġsupported": 2800, "Ġtesting": 3044, "cohol": 45270, "Ġmassive": 2232, "Ġstick": 4757, "Ġguard": 2510, "isco": 15069, "phone": 17283, "From": 7605, "However": 10462, "Ġborder": 1424, "Ġcopy": 5375, "ography": 10486, "list": 8458, "71": 5339, "Ġowner": 1945, "class": 4684, "ruit": 26491, "rate": 7954, "ĠOnce": 3128, "Ġdigital": 1778, "Ġtask": 3685, "ERS": 4322, "Ġincred": 38366, "tes": 12782, "++": 42964, "ĠFrance": 1470, "Ġbreat": 31997, "owl": 20734, "Ġissued": 1167, "ĠWestern": 2027, "Ġdetect": 10933, "Ġpartners": 2567, "Ġshared": 1373, "ĠCall": 3310, "Ġcancer": 1668, "ache": 7374, "ribe": 21700, "Ġexplained": 2002, "Ġheat": 2859, "{\"": 49643, "Ġinvestment": 915, "ĠBook": 5972, "Ġwood": 5627, "Ġtools": 3270, "ĠAlthough": 2223, "Ġbelief": 6563, "Ġcrisis": 1486, "Ġge": 5473, "ĠMP": 3957, "Ġoperation": 2513, "type": 12528, "~~": 48256, "ga": 2538, "Ġcontains": 6308, "anta": 11485, "Ġexpress": 5486, "ĠGroup": 826, "ĠJournal": 3642, "ka": 2348, "Ġamb": 13569, "ĠUSA": 2805, "Ġfinding": 2609, "Ġfunding": 1435, "how": 9178, "Ġestablished": 2885, "ideos": 47586, "Ġdegree": 3093, "Ġdangerous": 2702, "anging": 23786, "Ġfreedom": 3519, "pport": 44411, "outhern": 45846, "Ġchurch": 2352, "Ġcatch": 2916, "ĠTwo": 1596, "Ġpresence": 2621, "ĠGuard": 6137, "Up": 10926, "Ġauthority": 3446, "ĠProject": 3728, "Ġbutton": 6148, "Ġconsequ": 41593, "Ġvalid": 8218, "Ġweak": 3953, "Ġstarts": 2012, "Ġreference": 5135, "ĠMem": 20207, "\")": 8070, "UN": 4154, "orage": 46293, "ĠOpen": 2117, "Ġcollection": 2783, "ym": 8307, "gency": 29377, "Ġbeautiful": 2721, "ros": 3985, "Ġtells": 3026, "Ġwaiting": 2445, "nel": 18902, "Ġproviding": 1976, "ĠDemocrats": 1574, "Ġdaughter": 1354, "Ġmaster": 4710, "Ġpurposes": 6216, "ĠJapanese": 2898, "Ġequal": 3871, "Ġturns": 4072, "Ġdocuments": 2339, "Ġwatching": 2494, "Res": 20028, "Ġran": 2075, "2014": 16310, "Ġreject": 10363, "ĠKorea": 1101, "Ġvictims": 1680, "Level": 38809, "erences": 36806, "Ġwitness": 4562, "Ġ34": 2631, "Ġreform": 3114, "coming": 7936, "Ġoccup": 38598, "Ġcaught": 2037, "Ġtraffic": 1703, "ading": 8423, "Ġmodels": 3092, "ario": 7718, "Ġserved": 1665, "Ġbatter": 15867, "uate": 21269, "ĠSecretary": 1863, "Ġagreed": 1507, "Ġtruly": 3127, "ynam": 39116, "ĠRet": 9944, "Ġunits": 2833, "ĠResearch": 1624, "hand": 4539, "azine": 37855, "ĠMike": 1483, "Ġvariety": 3143, "otal": 35067, "Ġamazing": 2770, "Ġconfirmed": 1474, "Ġentirely": 4378, "Ġpurchase": 2229, "Ġelement": 7510, "Ġcash": 1055, "Ġdetermine": 3094, "De": 13365, "Ġcars": 1677, "ĠWall": 2298, "âĸ": 48584, "Ġviews": 2728, "Ġdrugs": 2196, "Ġdepartment": 1494, "ĠStep": 10577, "uit": 6439, "Ġ39": 3191, "asure": 24669, "ĠClass": 4210, "Ġcovered": 2913, "ĠBank": 788, "Ġmere": 9198, "uana": 30585, "Ġmulti": 3228, "Ġmix": 3344, "Ġunlike": 7328, "levision": 41605, "Ġstopped": 2294, "Ġsem": 9031, "ĠGal": 4537, "ules": 17773, "Ġwel": 18965, "ĠJohnson": 1436, "la": 2560, "Ġskill": 6707, "Ġbecoming": 1959, "rie": 3636, "Ġappropriate": 3901, "fe": 7068, "ellow": 33796, "ĠProt": 20873, "ulate": 10246, "ocation": 15644, "Ġweekend": 983, "odies": 27799, "Ġsites": 3091, "Ġanimal": 3477, "ĠTim": 2668, "Ġscale": 3189, "Ġcharged": 1340, "Ġinstruct": 20587, "illa": 4699, "Ġmethods": 6448, "Ġcert": 21045, "Ġjudge": 1679, "ĠHel": 6851, "Ġdollars": 1932, "Ġstanding": 2934, "ĠSqu": 13840, "Ġdebt": 1126, "liam": 37003, "Ġdriving": 1428, "ĠSum": 9430, "ĠEdition": 12603, "Ġalbum": 2642, "andon": 19490, "IF": 7025, "ĠUk": 27090, "63": 5449, "ader": 7292, "Ġcommercial": 1861, "esh": 4891, "ĠGovernment": 1621, "Ġdiscovered": 2967, "Ġoutput": 4195, "ĠHillary": 5141, "ĠCarol": 9347, "Ġ2005": 4013, "Ġabuse": 2134, "ancing": 7710, "Ġswitch": 5405, "Ġannual": 1013, "Tw": 23638, "Ġstated": 2305, "agement": 19660, "inner": 12247, "Ġdemocr": 38538, "Ġresidents": 1196, "Ġallowing": 2455, "Ġfactors": 2433, "odd": 13533, "Ġfuck": 26536, "emies": 26804, "Ġoccurred": 2756, "oti": 10939, "Ġnorth": 1926, "ĠPublic": 1909, "Ġinjury": 1356, "Ġinsurance": 1911, "CL": 7454, "olly": 10147, "ãĢ": 48516, "Ġrepeated": 6636, "Ġarms": 3701, "anged": 17770, "Ġconstruction": 1663, "Ġfle": 23618, "PU": 16821, "icians": 17197, "Ġforms": 4620, "ĠMcC": 3409, "antic": 26970, "Ġmental": 2536, "pire": 30684, "Ġequipment": 2104, "Ġfant": 30934, "Ġdiscussion": 3221, "Ġregarding": 2624, "kin": 4245, "arp": 11230, "Ġchair": 3428, "ogue": 10149, "Ġproceed": 9073, "ĠId": 10367, "Our": 2522, "Ġmurder": 1900, "Man": 6407, "Ġ49": 2766, "asp": 9331, "Ġsupply": 1787, "Ġinput": 8135, "Ġwealth": 4764, "liament": 37078, "Ġproced": 31902, "orial": 17707, "ĠStat": 15420, "ĠNFL": 1485, "hens": 27859, "ĠInstitute": 2534, "Ġputting": 2057, "ournament": 37535, "etic": 15557, "Ġlocated": 2034, "Ġkid": 4607, "eria": 6971, "run": 2962, "Ġprinc": 47627, "Ġ!": 27785, "going": 12891, "ĠBet": 6525, "Ġclot": 31293, "Ġtelling": 2758, "Ġproposed": 1850, "iot": 13214, "orry": 17649, "Ġfunds": 1188, "gment": 10757, "ĠLife": 3126, "Ġbaby": 1928, "ĠBack": 3727, "Ġspoke": 1834, "Image": 8532, "Ġearn": 4073, "ĠAT": 3263, "gu": 5521, "Ġexchange": 2081, "ĠLin": 9252, "oving": 13871, "Ġpair": 1763, "More": 9690, "azon": 20524, "Ġarrested": 1128, "Ġkilling": 2429, "can": 7424, "ĠCard": 5866, "yd": 9611, "Ġidentified": 2006, "Ġmobile": 1830, "Ġthanks": 2446, "onym": 41433, "ĠForm": 8575, "Ġhundreds": 2213, "ĠChris": 1573, "ĠCat": 7641, "Ġtrend": 2904, "hat": 8849, "ĠAv": 5080, "oman": 16187, "Ġelectric": 3459, "ĠWil": 3884, "SE": 3388, "Of": 10643, "Ġrestaur": 34577, "oted": 11367, "Ġtrig": 46681, "Ġnine": 1117, "Ġbomb": 4840, "Why": 7608, "Â¯": 47350, "Ġcoverage": 1953, "Ġappeal": 2868, "ĠRobert": 1738, "ĠSup": 17901, "Ġfinished": 1550, "Ġflow": 3041, "Ġdeliver": 2438, "Ġcalcul": 42576, "Ġphotos": 2356, "Ġphil": 43091, "Ġpieces": 3745, "Ġappre": 47978, "kes": 7339, "Ġrough": 6744, "Do": 8275, "Ġpartner": 1784, "Ġconcerned": 2273, "Ġ37": 2908, "ĠGen": 4380, "Col": 18551, "ctors": 38636, "Ġ=>": 46161, "state": 4897, "Ġsuggested": 2528, "ĠForce": 3177, "CE": 8041, "Ġherself": 2864, "ĠPlan": 5427, "works": 11655, "ooth": 22571, "rency": 48787, "Ġcorner": 2797, "Ġhusband": 1623, "Ġinternet": 2888, "ĠAut": 9496, "ems": 17752, "osen": 24353, "ĠAtl": 29018, "gen": 4138, "Ġbalance": 2394, "62": 5379, "Ġsounds": 4428, "text": 29015, "Ġarr": 25743, "oves": 14337, "Ġmillions": 2535, "Ġradio": 3188, "Ġsatisf": 36700, "ĠDam": 8234, "Mr": 10980, "Go": 11478, "Spe": 29235, "Ġcombat": 5217, "rant": 6618, "ĠGree": 26023, "Ġfuel": 2423, "Ġdistance": 4472, "Ġtests": 3457, "Ġdecre": 33186, "ĠEr": 4594, "Ġmanaged": 2312, "DS": 5433, "Ġtit": 13515, "Ġmeasures": 1797, "ĠLiber": 16129, "Ġattend": 2725, "ashed": 9512, "ĠJose": 3071, "ĠNight": 4172, "dit": 33307, "ĠNov": 1442, "ĠEnd": 4680, "outs": 4518, "Ġgeneration": 2706, "Ġadvoc": 48471, "yth": 20436, "Ġconversation": 1607, "ĠSky": 3601, "active": 12228, "cel": 9736, "rier": 8590, "ĠFrank": 3848, "Ġgender": 3959, "Ġconcent": 28289, "Ġcarried": 2584, "anda": 5219, "ĠVirgin": 9880, "Ġarrived": 2035, "icide": 15772, "aded": 7560, "Ġfailure": 2988, "Ġminimum": 3527, "lets": 10219, "Ġworst": 2373, "Ġkeeping": 2396, "Ġintended": 3833, "Ġillegal": 2439, "Ġsubsc": 48333, "Ġdetermined": 3030, "Ġtrip": 1805, "Yes": 9904, "Ġraise": 1693, "Ġ~": 14434, "Ġfeels": 2653, "Ġpackage": 3737, "ĠJo": 3889, "hi": 3592, "2016": 9029, "real": 8726, "Ġfra": 26830, "Ġsymb": 39835, "Me": 5096, "ucky": 19873, "pret": 42354, "ĠKh": 2218, "ĠEdit": 39391, "ĠWeb": 6494, "emic": 14414, "ĠColor": 16858, "Ġjustice": 2427, "Int": 22886, "Ġfarm": 3380, "cknow": 47678, "\">": 46479, "eless": 13802, "Ġreduced": 2906, "Ġ500": 1764, "xx": 29061, "ĠRad": 7312, "ĠWood": 3132, "Ġclin": 13482, "Ġhyp": 15671, "iler": 10329, "ura": 3851, "kins": 7327, "85": 4531, "61": 5606, "ĠTheir": 2667, "ĠMary": 2708, "Ġsan": 15610, "Ġnovel": 5808, "ĠWho": 3394, "Ġcapacity": 2148, "Ġimpossible": 4703, "Ġplays": 1974, "Ġminister": 1269, "ijuana": 25491, "icate": 14263, "ĠSet": 8504, "Ġfram": 41527, "Ġing": 21691, "Ġcommunities": 1822, "ĠFBI": 2448, "ita": 3119, "Ġbon": 13295, "Ġstrateg": 18506, "Ġinterests": 3168, "lock": 8292, "gers": 7188, "mas": 13738, "ĠAND": 4248, "Ġconflict": 3050, "Ġrequirements": 3471, "Ġsac": 22636, "Ġoperating": 1633, "ini": 2531, "related": 3368, "Ġcommitted": 2021, "Ġrelatively": 3487, "Ġsouth": 2077, "Â¯Â¯": 50051, "Ġafford": 4960, "Ġidentity": 3599, "Ġdecisions": 2390, "Ġaccused": 1238, "place": 6406, "Ġvictory": 1124, "och": 4306, "iat": 11284, "Name": 31723, "Com": 14721, "tion": 24659, "eds": 12080, "Ġseek": 2639, "Ġtight": 3229, "ĠImages": 2209, "Ġiniti": 41178, "Ġhumans": 5868, "Ġfamiliar": 2950, "Ġaudience": 2437, "Ġinternal": 3425, "venture": 33289, "Ġsides": 2380, "ĠTO": 3842, "Ġdim": 14548, "Ġconclud": 49086, "Ġappoint": 9653, "Ġenforcement": 2251, "ĠJim": 2488, "ĠAssociation": 1544, "Ġcircumst": 42755, "ĠCanadian": 1563, "Ġjoined": 1770, "Ġdifferences": 5550, "ĠLos": 1287, "Ġprotest": 2790, "Ġtwice": 2330, "win": 5640, "Ġglass": 4049, "arsh": 14980, "ĠArmy": 2938, "Ġexpression": 8151, "Ġdecide": 2845, "Ġplanning": 1884, "ania": 8295, "Ġhandle": 3679, "ĠMicrosoft": 3709, "ĠNor": 6567, "Ġmaximum": 4532, "ĠRev": 7161, "Ġsea": 3342, "Ġeval": 37131, "Ġhelps": 2607, "ref": 13043, "Ġbound": 8191, "Ġmouth": 6085, "Ġstandards": 2820, "Ġclim": 23377, "ĠCamp": 4746, "ĠFox": 2063, "cles": 20639, "Ġarmy": 3835, "ĠTechn": 14495, "acking": 7361, "xy": 32027, "SS": 8108, "Ġ42": 3330, "Ġbug": 13673, "ĠUkrain": 46944, "ĠMax": 4471, "ĠJones": 1454, "ĠShow": 2907, "lo": 4082, "Ġplanet": 5518, "Ġ75": 3337, "Ġwinning": 1298, "Ġfaster": 3845, "Ġspect": 19416, "Ġbroken": 3187, "TR": 6997, "Ġdefined": 6533, "Ġhealthy": 2245, "Ġcompetition": 1465, "https": 13082, "ĠIsland": 2376, "ĠFe": 6945, "Ġannounce": 4659, "ĠCup": 968, "ĠInstead": 2978, "Ġclient": 3653, "Ġpossibly": 3544, "section": 22580, "ocket": 31629, "look": 13724, "Ġfinish": 2073, "Ġcrew": 3419, "Ġreserv": 32619, "Ġeditor": 4474, "Ġhate": 4157, "Ġsale": 1392, "Ġcontrovers": 39298, "Ġpages": 6052, "wing": 5577, "Ġnumer": 36247, "Ġopposition": 1756, "Ġ2004": 4482, "Ġrefuge": 16555, "Ġflight": 2524, "Ġapart": 4102, "ĠLat": 9882, "Americ": 46109, "ĠAfrica": 1327, "Ġapplications": 2975, "ĠPalest": 47398, "ĠBur": 4273, "Ġgar": 15475, "ĠSocial": 3574, "Ġupgr": 44126, "Ġshape": 3989, "Ġspeaking": 2686, "ansion": 40787, "ao": 3853, "ĠSn": 7500, "Ġworry": 4022, "ĠBritain": 1444, "Please": 6715, "roud": 22552, "Ġhun": 26458, "Ġintroduced": 2942, "Ġdiet": 5626, "Ind": 15248, "ĠSecond": 4665, "Ġfunctions": 8047, "uts": 7046, "ĠEach": 4028, "ĠJeff": 2321, "Ġstress": 3992, "Ġaccounts": 2349, "Ġguarant": 33148, "ĠAnn": 3921, "edia": 24220, "Ġhonest": 5322, "Ġtree": 3907, "ĠAfrican": 1704, "ĠBush": 3516, "},": 48268, "Ġsch": 8447, "ĠOnly": 4041, "Ġfif": 45783, "igan": 6703, "Ġexercise": 3325, "ĠExp": 12806, "Ġscientists": 4211, "Ġlegislation": 2309, "ĠWork": 6011, "ĠSpr": 14933, "ÃĤ": 2537, "ĠHuman": 3861, "Ġè": 47897, "Ġsurvey": 2658, "Ġrich": 4066, "rip": 10706, "Ġmaintain": 3014, "Ġflo": 27325, "Ġleadership": 1673, "stream": 8656, "ĠIslamic": 2715, "Ġ01": 9465, "ĠCollege": 1821, "Ġmagic": 8375, "ĠPrime": 1489, "Ġfigures": 2415, "2017": 3789, "inder": 7026, "xual": 47830, "ĠDead": 9088, "Ġabsolutely": 3668, "Ġfourth": 887, "Ġpresented": 2633, "respond": 36797, "rible": 24786, "Ġalcohol": 3766, "ato": 3938, "ĠDE": 5885, "porary": 42023, "Ġgrab": 6895, "Ġvari": 44243, "Ġquant": 24934, "ĠPhoto": 1333, "Ġplus": 2704, "rick": 7100, "arks": 15921, "Ġalternative": 3626, "Ġpil": 25172, "Ġapprox": 36612, "that": 6025, "Ġobjects": 8720, "ĠRo": 3830, "ĠAndroid": 3208, "Ġsignificantly": 3625, "ĠRoad": 1214, "kay": 33206, "Read": 25439, "avor": 22042, "Ġacknow": 49351, "ĠHD": 7951, "ĠSing": 10413, "Or": 11094, "ĠMont": 4436, "Ġuns": 9977, "prof": 22376, "Ġnegoti": 43930, "ĠArch": 10832, "iki": 8907, "Ġtelevision": 2384, "ĠJewish": 4586, "Ġcommittee": 1540, "Ġmotor": 4243, "Ġappearance": 2772, "Ġsitting": 2828, "Ġstrike": 2506, "ĠDown": 5818, "comp": 11828, "ĠHist": 31862, "Ġfold": 14789, "acement": 23423, "ĠLouis": 3217, "Ġbelong": 9943, "ĠâĢ¢": 1347, "Ġmort": 18631, "Ġprepared": 2460, "Ġ64": 4430, "ĠMaster": 6935, "Ġindeed": 5329, "ĠDen": 6743, "Ġrent": 5956, "TA": 3847, "ourney": 37786, "arc": 9636, "Su": 20689, "97": 6750, "Ġadvice": 2949, "Ġchanging": 2992, "Ġlisted": 3147, "Ġlaunched": 1660, "isation": 3258, "ĠPeter": 2155, "ishes": 10776, "Ġlived": 3033, "ĠMel": 4448, "ĠSupreme": 2124, "ĠFederal": 1853, "Ġ);": 47162, "ructure": 20636, "Ġsets": 3880, "Ġphilos": 49303, "uous": 12685, "ĠÂł": 50143, "Ġapplied": 5049, "ĠNOT": 8127, "Ġhousing": 2004, "ĠMount": 5455, "Ġodd": 8372, "Ġsust": 29237, "DA": 3134, "fficient": 43788, "Ġ?": 17487, "olved": 19084, "Ġpowers": 4361, "Ġthr": 10161, "Ġremaining": 2405, "ĠWater": 3201, "LC": 6447, "Ġcauses": 4685, "ãģ®": 48018, "Ġmanner": 4737, "ads": 7842, "Ġsuggests": 3649, "Ġends": 3587, "standing": 8190, "fig": 22699, "ĠDun": 6367, "idth": 47309, "Ġgay": 5100, "Ġtermin": 19022, "ĠAngeles": 1422, "MS": 6222, "Ġscientific": 6441, "Ġcoal": 4051, "apers": 24225, "bar": 4901, "ĠThomas": 1813, "Ġsym": 22850, "ĠRun": 7435, "this": 9226, "PC": 4794, "igrants": 24280, "Ġminute": 2289, "ĠDistrict": 1384, "cellent": 39462, "Ġleaves": 3607, "Ġcompleted": 2121, "amin": 13941, "Ġfocused": 2061, "Ġmonitor": 5271, "Ġvehicles": 1734, "MA": 5273, "ĠMass": 5370, "ĠGrand": 2374, "Ġaffected": 2132, "itutional": 12279, "Ġconstruct": 12558, "Ġfollows": 3905, "Ġton": 4866, "reens": 18656, "Ġhomes": 1611, "ĠExt": 19188, "ĠLevel": 12183, "rast": 16136, "ĠIr": 9139, "Ġelim": 33451, "Ġlargely": 2743, "ĠJoe": 2101, "Ġvotes": 2834, "alls": 12019, "Ġbusinesses": 1252, "ĠFoundation": 2475, "ĠCentral": 1505, "Ġyards": 1314, "Ġmaterials": 3183, "ulner": 47597, "Ġguide": 4704, "Ġcloser": 2789, "ums": 8014, "Ġsports": 1612, "eder": 11736, "Just": 6785, "Ġtaxes": 2556, "84": 6232, "ĠOld": 3470, "Ġdecade": 2202, "ola": 3019, "Ġvir": 26354, "Ġdropped": 1882, "Ġdelay": 4646, "itect": 37471, "Ġsecure": 2823, "stein": 7864, "level": 4483, "Ġtreated": 3032, "Ġfiled": 1658, "aine": 5193, "Ġvan": 3538, "Ġmir": 13235, "Ġcolumn": 6730, "icted": 19799, "eper": 30816, "Ġrot": 13351, "Ġconsult": 12777, "Ġentry": 3555, "Ġmarijuana": 3140, "ĠDou": 11260, "Ġapparently": 4100, "oking": 14805, "clusive": 15871, "Ġincreases": 3488, "ano": 2601, "Ġspecifically": 4010, "Ġtele": 8327, "ensions": 19783, "Ġreligion": 6825, "abilities": 25264, "Ġframe": 5120, "ĠNote": 6068, "ĠLee": 2094, "Ġhelping": 1903, "Ġedge": 3543, "oston": 40415, "Ġorganizations": 2665, "Ãĥ": 13572, "ĠBoth": 1868, "hips": 7903, "Ġbigger": 2671, "Ġboost": 2501, "ĠStand": 13371, "Ġrow": 3236, "uls": 11418, "abase": 46972, "Ġrid": 7495, "Let": 7939, "aren": 9475, "rave": 15132, "Ġstret": 28723, "PD": 6153, "Ġvision": 3360, "Ġwearing": 2498, "Ġappreci": 14137, "Ġaward": 2354, "ĠUse": 7627, "Ġfactor": 3724, "war": 5557, "ulations": 16685, ")(": 21704, "Ġgod": 9069, "Ġterrit": 38064, "Ġparam": 40206, "asts": 13651, "87": 5677, "Ġenemies": 11058, "ĠGames": 3100, "FF": 7389, "Ġaccident": 3213, "Well": 8346, "ĠMartin": 1896, "TER": 7831, "Ġath": 43556, "ĠHell": 11141, "Ġforg": 31928, "Ġveter": 48161, "ĠMedic": 26413, "free": 3743, "Ġstars": 2690, "Ġexpensive": 3214, "Ġacad": 36271, "rawn": 20881, "ĠWhe": 22199, "Ġlock": 7014, "Ġformat": 7390, "Ġsoldiers": 3878, "sm": 9426, "Ġagent": 2936, "Ġresponsibility": 2640, "ora": 4330, "ĠScience": 4662, "Ġrapid": 6379, "Ġtough": 1828, "ĠJesus": 5772, "Ġbelieves": 2046, "ML": 10537, "Ġwear": 3568, "lete": 16746, "ÃĥÃĤ": 50048, "ĠDri": 25837, "Ġcommission": 3210, "ĠBob": 3045, "Oh": 7516, "aped": 14677, "Ġwarm": 3279, "ÃĥÃĤÃĥÃĤ": 50080, "Ġ2003": 4999, "ortion": 33938, "Ġhasn": 2282, "uster": 10504, "Ġunivers": 35503, "ĠIll": 12285, "Ġking": 8453, "ologies": 20643, "94": 6405, "ĠTem": 9188, "ĠMos": 8033, "Ġpatient": 3186, "ĠMexico": 1625, "cean": 35210, "ĠDeath": 11644, "ĠSanders": 5316, "you": 6968, "ĠCast": 6719, "ĠCompany": 1260, "pty": 42865, "Ġhappening": 2909, "FP": 9763, "ĠBattle": 9846, "Ġbought": 2162, "Am": 10127, "Mod": 30597, "Us": 16419, "uters": 13188, "ĠCre": 12022, "ĠThose": 2246, "Ġ44": 3550, "iser": 5999, "Ġsoul": 7047, "ĠTop": 3107, "ĠHarry": 3268, "ĠAw": 11614, "Ġseat": 2418, "ffee": 38213, "Ġrevolution": 7977, "Ġ(\"": 6697, "ĠDuring": 1590, "ette": 3398, "Ġring": 3758, "Ġoffensive": 2555, "Ġreturns": 2886, "Ġvideos": 3424, "Ġdiscl": 44250, "Ġfamous": 3395, "enced": 19867, "ĠSign": 4313, "ĠRiver": 1995, "Ġ300": 2993, "PM": 5683, "ĠBus": 6926, "ĠCH": 3858, "Ġcandidates": 2261, "arden": 13948, "Ġpercentage": 3164, "Ġvisual": 7133, "Ġthank": 3392, "Ġtrouble": 3605, "nergy": 38234, "Ġ2001": 5155, "Ġprove": 3364, "ashion": 36534, "Ġenh": 45378, "ĠLong": 2597, "UM": 5725, "Ġconnected": 3665, "Ġpossibility": 3302, "Over": 10777, "Ġexpert": 3827, "Ġlibrary": 5560, "arts": 7870, "ĠDirector": 1678, "Ġfellow": 2598, "92": 6617, "irty": 32430, "Ġdry": 3841, "Ġsigns": 2434, "ĠLove": 3437, "Ġquiet": 5128, "foot": 2917, "Ġpure": 8309, "ĠHun": 17087, "Ġfilled": 3820, "phas": 32934, "ĠElect": 20513, "endment": 40720, "ĠExpl": 16161, "Ġunable": 3276, "ns": 6852, "mo": 4992, "Ġvast": 4714, "obe": 14004, "Ġidentify": 3058, "apping": 12040, "ĠCarolina": 1961, "gress": 39468, "Ġprote": 27067, "Ġfish": 3539, "Ġcircumstances": 4215, "razy": 36616, "ĠPhot": 23769, "Ġbodies": 3738, "ĠMur": 7273, "Ġdeveloping": 2623, "ĠAR": 5495, "Ġexperienced": 2984, "Ġsubstant": 30804, "ĠBoard": 1785, "esome": 38297, "Ġdomestic": 1897, "Ġcombined": 2771, "ĠPut": 9722, "Ġchemical": 4747, "ĠChild": 7442, "Ġpool": 3716, "ĠCy": 9384, "Ġegg": 8380, "cons": 10998, "sters": 9230, "Ġhurt": 2581, "Ġmarkets": 1048, "Ġconservative": 3354, "Ġsupporters": 2732, "Ġagencies": 2244, "idel": 22088, "Ob": 24567, "urb": 13157, "Ġ43": 3557, "ĠDefense": 4545, "ye": 4717, "ĠAp": 8712, "dule": 35401, "Ġtemperature": 5181, "Ġconducted": 2964, "ĠChief": 1231, "Ġpulled": 2468, "Ġfol": 24665, "Last": 10285, "onto": 27227, "osis": 13310, "VER": 9847, "Des": 28324, "ĠPan": 5302, "First": 10993, "Ġadvance": 3316, "Ġlicense": 4385, "rors": 38505, "ĠJon": 4160, "Ġimagine": 4744, "Ġhell": 7105, "Ġfixed": 4460, "Ġincor": 45564, "osite": 42934, "ĠLog": 9359, "icken": 13552, "]:": 42645, "Ġsurprise": 2755, "hab": 13899, "Ġcraft": 6306, "olt": 11499, "ĠJul": 9654, "Ġdial": 11481, "Ġrelevant": 4249, "Ġentered": 2867, "Ġleads": 3315, "ĠAD": 4516, "ĠClean": 10326, "Ġpictures": 3493, "essor": 33728, "Ġalt": 11838, "Ġpaying": 2746, "Per": 20823, "ĠMarket": 1018, "Ġupdates": 3496, "amily": 32455, "ĠType": 7773, "ĠHome": 2193, "Ġ55": 3490, "sembly": 49565, "rome": 20169, "83": 6361, "Ġgreatest": 3968, "Ġheight": 6958, "Ġheav": 42287, "aints": 24487, "Ġlisten": 4161, "aser": 12425, "ĠSH": 4584, "Ġcapable": 4453, "acle": 24618, "Ġperspect": 46684, "inating": 15647, "Ġoffering": 1839, "rypt": 39801, "ĠDevelop": 15347, "abin": 17531, "rc": 22393, "Ġbright": 4520, "alty": 12107, "arrow": 17214, "Ġsuppl": 38521, "inding": 24088, "acked": 10074, "gypt": 44724, "ĠAnother": 2044, "pg": 18188, "ĠVirginia": 2240, "ĠLu": 5078, "Ġplanned": 1904, "Ġpit": 8516, "Ġsweet": 4045, "Type": 40118, "ĠDi": 3643, "Ġtypically": 3700, "ĠFrancisco": 2659, "Ġprospect": 4517, "ĠDan": 2503, "Ġteen": 6066, "rees": 13448, "Ġsched": 46825, "Ġhol": 18701, "Ġscr": 17940, "Ġlots": 3739, "life": 5367, "Ġnewsp": 48933, "Ġforget": 4309, "ĠNone": 9291, "ĠMiddle": 2367, "ĠRyan": 1774, "edd": 13093, "Ġsevere": 3814, "Ġsuit": 3235, "ller": 12853, "93": 6478, "Ġcorrespond": 20719, "Ġexplos": 41294, "uations": 10184, "Ġflag": 3794, "game": 2670, "rid": 10505, "Ġprin": 27222, "ĠData": 5423, "Ġdeploy": 11386, "ĠEnter": 4789, "suit": 18605, "ghan": 5158, "ĠMen": 4011, "Ġthoughts": 4312, "Ġmatters": 3510, "Ġadapt": 9037, "ĠAri": 6416, "Ġfill": 3300, "Ġforth": 7264, "Ġsam": 13049, "Ġ41": 3492, "Ġpayment": 3207, "ĠHor": 6746, "Ġspring": 2428, "duc": 45882, "Ġlosing": 2086, "Ġbringing": 2406, "FO": 7942, "ala": 2331, "Ġdistribution": 3854, "hered": 16375, "bour": 22482, "ĠIsraeli": 3465, "oma": 4982, "Ġcombination": 4069, "Ġplenty": 2710, "VE": 8856, "Can": 10836, "ĠHaw": 10034, "Ġperman": 41367, "ĠSpecial": 3672, "Ġtow": 19521, "Ġseeking": 1818, "Ġexamples": 7721, "Ġclasses": 4050, "cr": 8344, "Ġbeer": 4437, "Ġmoves": 3136, "ĠIP": 6442, "ĠKn": 8622, "Ġpanel": 2798, "Even": 8170, "Ġproperly": 5083, "Ġris": 21166, "Ġplug": 10242, "Ġestimated": 2319, "Every": 7682, "Ġdefensive": 2465, "agraph": 44947, "Ġpregn": 49564, "Ġinstit": 16114, "ĠVict": 41269, "Ġvolume": 3149, "Ġpositions": 2452, "Ġlinks": 5678, "ĠProgram": 4928, "ĠWeek": 2852, "agues": 27379, "Ġtransform": 7891, "ker": 5029, "ĠCEO": 1324, "Ġcas": 9074, "Ġopponent": 5254, "Ġtweet": 3545, "ĠCode": 8302, "Ġshop": 2792, "Ġfly": 3598, "Ġtalks": 1431, "Ġbag": 3298, "Phone": 40980, "Ġaid": 2887, "Ġplants": 3451, "Ġ65": 3620, "Ġattorney": 1921, "arters": 40758, "quest": 23627, "ĠMagic": 9098, "Ġbegins": 3772, "Ġmyster": 49107, "Ġenvironmental": 3039, "Ġstorage": 3521, "NN": 20057, "Ġmarg": 31417, "Ġske": 32470, "Ġmetal": 4204, "elly": 10917, "Ġordered": 2740, "Ġremained": 2442, "Ġloved": 2638, "Ġprompt": 14302, "Ġupdated": 4752, "Ġexperts": 2320, "Ġwalking": 3051, "Ġancient": 8178, "Ġperformed": 3744, "ATE": 8625, "Ġneither": 5063, "iency": 33625, "Ġmanufacture": 15030, "ĠPak": 15776, "Ġselected": 3919, "Ġmine": 4318, "Ġultimately": 3284, "Ġexplan": 49473, "Ġlabel": 6929, "ĠServices": 1820, "ributed": 18926, "Trump": 7565, "Ġsyn": 17796, "ĠUlt": 27357, "SC": 3632, "Ġmeat": 4884, "Ġgiant": 3065, "ĠWars": 6975, "ĠON": 5121, "Ġadm": 20087, "Ġinterpret": 18107, "Ġevening": 1559, "Ġevil": 9247, "ĠBoston": 2278, "ĠWild": 3962, "ĠÃ": 952, "ĠBitcoin": 8518, "ĠAmazon": 1645, "Dr": 14043, "ĠInformation": 3522, "Ġobviously": 3334, "Ġadvanced": 3319, "Photo": 2411, "olar": 19231, "Ġweather": 1650, "Ġsymbol": 7648, "Ġsole": 6922, "Ġpotentially": 2905, "oster": 13991, "Ġoriginally": 3249, "mun": 20614, "300": 2965, "aze": 10129, "essions": 27366, "Ġdeck": 9124, "Ġstood": 3359, "Ġyouth": 2719, "ĠBern": 6552, "Rep": 22026, "ĠTest": 4500, "Ġbasically": 5072, "otic": 13510, "Ġinvolve": 6877, "olit": 20726, "lyn": 7436, "See": 19224, "Ġaircraft": 3054, "Ġconfirm": 4559, "EW": 15251, "Ġmessages": 3731, "ĠRichard": 2431, "Ġkit": 10549, "Ġprohib": 34951, "Ġvulner": 46631, "isters": 16729, "Ġexistence": 8066, "Ġturning": 3408, "ĠSP": 6178, "Ġdesire": 4724, "Ġflat": 3269, "Ġment": 12906, "season": 4162, "anges": 33094, "Ġneighborhood": 3757, "ĠLake": 1777, "ATION": 6034, "Ġpointed": 3273, "bur": 10734, "Ġinnov": 18163, "ucks": 19667, "UL": 6597, "Ġprofessor": 3097, "Ġexpressed": 2327, "AB": 4546, "icious": 16003, "Ġ2002": 5241, "ĠDev": 7439, "Ġsession": 1852, "Ġbare": 10905, "sen": 7305, "Ġdiss": 14863, "ĠCath": 20349, "ĠPass": 7124, "ĠPoint": 4937, "Ġdoctor": 3299, "orrow": 24805, "ailed": 13355, "ĠRub": 12239, "ĠDC": 5815, "ĠCharl": 15959, "person": 5970, "Ġwriter": 3331, "ighters": 38361, "ureau": 44685, "Ġoblig": 23762, "Ġrecorded": 2673, "Ġbroke": 2263, "Ġorders": 3365, "ilty": 33576, "Ġmotion": 4298, "inity": 16838, "law": 4656, "adium": 22131, "Ġimmigration": 2447, "Ġcontrast": 5709, "Ġbatt": 36325, "Ġexcellent": 4206, "Ġtechnical": 3165, "ami": 5602, "Ġtun": 27115, "Ġcloud": 3613, "ĠYear": 2041, "geon": 20989, "Ġcreation": 5012, "Ġstrange": 7782, "Ġauth": 48639, "Ġfort": 15016, "born": 5400, "Ġextent": 5239, "ĠToday": 2477, "ĠClub": 2009, "Ġrain": 1895, "Ġsample": 7728, "Ġaccepted": 3903, "Ġtact": 27844, "Ġfired": 2277, "ĠSon": 4969, "Ġstands": 3311, "Ġboot": 9759, "Ġ47": 4034, "Ġstatements": 1997, "Ġversions": 7952, "Ġselling": 2183, "ounded": 9968, "Ġ1990": 4525, "Ġweren": 3559, "ĠWatch": 3075, "Ġexperiment": 9280, "Post": 21585, "Ġretail": 2304, "uled": 12841, "Inst": 23754, "unte": 29998, "ãĥ¼": 48438, "Ġdepart": 18770, "Ġbond": 2175, "ivery": 26230, "ompl": 40712, "Ġreaction": 4289, "ĠSyrian": 3085, "ĠPac": 8116, "apped": 11251, "aniel": 35947, "DP": 5174, "Ġresolution": 3547, "Ġreact": 9046, "Ġapproved": 2033, "onom": 20890, "mond": 8876, "ĠOffic": 37068, "---": 24965, "Ġreplace": 3190, "Ġtack": 24420, "Ġsport": 2414, "Ġchain": 3206, "Ġemergency": 1923, "rad": 7822, "ĠPalestin": 49141, "Ġ46": 4059, "Ġautomatically": 6885, "Ġroute": 3420, "Ġpal": 8750, "Ġbanks": 1520, "ĠParis": 2201, "ĠMedia": 2454, "road": 14288, "icing": 16483, "ixt": 37308, "isted": 15346, "Ġgrew": 2307, "Ġcoord": 46521, "ĠWhere": 4820, "omin": 18121, "Ġsubs": 18621, "ï¿½ï¿½": 47119, "ĠÂ±": 46710, "Ġcorporate": 2365, "Ġselection": 4230, "noon": 20466, "ĠReport": 2872, "cs": 11365, "cluding": 19586, "orders": 28436, "anche": 13706, "ĠIts": 3139, "Ġslowly": 5764, "ĠEgypt": 5028, "ĠAcc": 5438, "Ġcolle": 47817, "iques": 16474, "EX": 6725, "Ġattempts": 3881, "url": 6423, "ĠCross": 4415, "Ġfindings": 4139, "ĠSC": 4998, "ĠOR": 6532, "Ġindex": 1965, "ensity": 40904, "ĠWay": 4846, "ĠLand": 3192, "Ġshock": 4817, "dis": 7779, "Ġdynam": 29713, "Ġcart": 9727, "mosp": 46032, "Since": 11321, "iest": 7098, "ĠBoy": 5637, "Ġstorm": 2130, "ĠContin": 21803, "2013": 10684, "hew": 16152, "ilit": 12427, "Ġessential": 4499, "iquid": 42902, "Other": 24989, "ivered": 35158, "Ġreasonable": 5701, "Act": 26880, "Ġsubsequ": 49734, "ĠPack": 8898, "ĠFort": 3339, "Ġconsidering": 2811, "Ġuniversity": 2737, "log": 12376, "Ġmarried": 2997, "Ġillust": 31635, "ĠTrue": 7447, "£ı": 49971, "Ġnumerous": 3617, "rastructure": 43455, "Ġseriously": 3640, "Ġreferred": 4997, "ua": 4324, "Ġconsistent": 4292, "onna": 19864, "ĠReal": 2822, "ruption": 26858, "ciples": 44633, "Ġfacts": 4905, "91": 6468, "otes": 17467, "erg": 11249, "Then": 12948, "Ġaccompl": 17872, "Note": 27728, "Ġrevenue": 903, "Ġpassing": 3133, "Ġmal": 8196, "een": 14102, "ĠYet": 3507, "Ġgather": 7365, "terday": 45869, "ework": 31466, "ĠAuthor": 14338, "Pe": 23029, "Ġoptim": 17775, "Ġrub": 14204, "Ġè£ı": 50073, "Ġunknown": 4727, "stone": 4670, "Ġunion": 2918, "olve": 18224, "Ġopportunities": 1616, "Ġbrowser": 11407, "ĠWal": 6092, "ĠCost": 7860, "Ġreporting": 2207, "sts": 5019, "pet": 13713, "Ġsand": 6255, "Ġsuddenly": 6017, "Ġsurprising": 6167, "ĠVR": 8311, "Ġsomewhat": 5568, "ĠBas": 7093, "ulture": 17898, "izz": 6352, "ĠCD": 7522, "Ġchallenges": 2019, "Ġsettings": 9629, "Ġexperiences": 3734, "ĠFull": 6583, "Ġcann": 36541, "Ġreceiving": 2806, "EST": 4923, "Ġjoint": 2660, "Ġcultural": 4106, "Ġast": 12976, "82": 6551, "astern": 34927, "ceived": 31597, "ĠCru": 13876, "Ġbull": 8347, "pired": 25002, "amm": 12614, "Ġfacing": 2114, "power": 11017, "Ġboss": 3504, "ĠHol": 6217, "Ġinstr": 49152, "Ġincreasingly": 3150, "Ġshift": 3294, "Ġstreets": 2827, "ĠWilliams": 1604, "abb": 8448, "Ġlie": 6105, "Ġlaugh": 7923, "ĠCa": 8316, "PL": 7205, "Ġadults": 3362, "Ġcustomer": 2111, "Ġobtained": 4756, "Ġsupporting": 3117, "html": 6660, "fire": 7051, "Ġdetailed": 4271, "Ġpicked": 2738, "ĠRight": 5143, "lder": 13034, "EE": 9993, "stood": 31935, "ĠKim": 1636, "Ġwire": 8869, "Ġsight": 6112, "Ġdevelopers": 5485, "Ġpersons": 5151, "Ġsad": 5074, "Ġcup": 4946, "Ġwarning": 2892, "Ġboys": 2786, "long": 3479, "Ġbird": 5103, "fo": 21466, "Ġwal": 21788, "Ġobserved": 6373, "Ġzone": 2056, "iveness": 12367, "Ġchannel": 4238, "cript": 26083, "Ġrefused": 3179, "ĠAgain": 7574, "Ġsuc": 43164, "Ġspokesman": 1565, "ĠRef": 8526, "rite": 36500, "ouston": 42185, "ãĥ³": 48078, "ĠSher": 6542, "Ġacts": 4504, "ĠName": 10704, "Ġstruggle": 3860, "arry": 12795, "ometimes": 49766, "Ġdiscrim": 40846, "HT": 14469, "Ġcategory": 4120, "Ġrealize": 4883, "Ġemployee": 3200, "ĠAfghan": 7649, "enger": 24290, "Ġguns": 5013, "ĠSteve": 2206, "ĠMot": 6434, "ĠOl": 5387, "oked": 17477, "Ġthick": 7992, "Ġfairly": 5342, "illy": 10758, "Ġsurve": 27994, "ĠMat": 4101, "weight": 4301, "âĶ": 47534, "Ġtroops": 3517, "Ġagents": 3525, "Ġbattery": 3822, "Ġmotiv": 21496, "Ã¡": 1526, "Sec": 33099, "den": 3898, "overy": 46546, "LS": 10463, "Ġflu": 6626, "Ġconfident": 3230, "ĠOper": 23701, "Ġempty": 5802, "Ġphen": 35833, "Ġsector": 1293, "Ġexcited": 2283, "Ġremote": 6063, "aph": 8258, "oen": 18057, "Ġdestroyed": 4957, "Ġmoral": 7654, "ĠHP": 13064, "ĠRon": 5529, "Ġdress": 3588, "ĠBat": 8324, "Ġlit": 6474, "ĠMS": 6253, "Ġaf": 9724, "HL": 8064, "rum": 10904, "isms": 28599, "Ġshouldn": 4395, "Ġsympt": 42173, "ĠToronto": 2177, "hetic": 18667, "Ġcarbon": 4363, "Ġinstalled": 5923, "Ġviolent": 4153, "Ġsolar": 4118, "ja": 1910, "Ġpractices": 3464, "Ġride": 3068, "ĠPenn": 5953, "Ġimproved": 2782, "Ġaudio": 6086, "Ġbehavi": 49788, "ĠPS": 4868, "Ġeating": 4441, "Data": 30383, "ĠReview": 5872, "pass": 10212, "claim": 31628, "uated": 14133, "angers": 15574, "chen": 8224, "Ġproperties": 3611, "Ġanywhere": 4558, "Another": 21518, "Ġblow": 4627, "ĠJackson": 2250, "Ġproud": 2602, "Ġplane": 3286, "lines": 11723, "Ġsquare": 3925, "Ġproof": 6461, "ansas": 38058, "Ġtalked": 3244, "makers": 6040, "Ġsister": 2761, "Ġholds": 3106, "Ġresident": 3313, "Ġ==": 45994, "Ġresistance": 5910, "Ġsplit": 3462, "Ġprosecut": 42308, "Ġconfidence": 2123, "resents": 40826, "Ġcuts": 2599, "Ġexception": 8219, "Ġzero": 4276, "Getty": 4043, "Ġcopyright": 4857, "Ġtotally": 4940, "ormal": 43808, "ifications": 14868, "ĠAustralian": 2059, "Ġsick": 4736, "Ġ150": 3982, "Ġhousehold": 6028, "Ġfees": 3154, "Ġdrivers": 2377, "ogen": 11575, "ĠNY": 5300, "Ġnecessarily": 4784, "Ġregulations": 3478, "earing": 10852, "sl": 9996, "Ġperspective": 4263, "care": 6350, "icial": 23092, "His": 9962, "Ġescape": 5111, "Ġsurprised": 3911, "ĠVan": 3415, "urrent": 41937, "Ġvac": 18721, "81": 6668, "ĠThus": 10623, "Ġemphas": 17237, "ĠChampions": 3666, "ĠIce": 8761, "Ġnarr": 33316, "Ġheads": 3885, "Ġcausing": 3735, "bel": 8494, "fortunately": 45779, "ĠMa": 3066, "Ġtargets": 3247, "cipl": 40146, "Ġafternoon": 1390, "Ġadds": 3639, "ĠMaybe": 5359, "ĠFour": 3759, "essed": 18502, "plete": 43651, "Ġusual": 4505, "cho": 11156, "ingu": 35308, "Ġwithd": 49677, "ĠEnergy": 2169, "ĠEconom": 17833, "OO": 9332, "Ġarticles": 7201, "Ġinjured": 1710, "Ġmanage": 3616, "Ġexplains": 4529, "Ġdiagn": 25378, "Rec": 21109, "atures": 15488, "Ġlinked": 3307, "Ġdiscussed": 3373, "Ġexplo": 38984, "Ġoccasion": 5852, "athan": 15322, "Ġopposite": 5483, "Ġfaces": 2419, "Ġdenied": 2296, "ĠKnight": 8695, "Ġnut": 17145, "Ġapproximately": 2219, "Ġdisappoint": 17534, "onymous": 31386, "ĠBest": 2700, "ĠLo": 5463, "ĠHy": 8851, "ĠAff": 11176, "Ġvoting": 3434, "anwhile": 49241, "ĠIII": 6395, "Ġinstitutions": 3353, "agram": 17654, "ĠDaily": 1681, "Ġdrag": 8386, "Ġnearby": 3027, "Ġguilty": 2181, "Ġconver": 25111, "Pre": 22763, "ship": 24754, "Ġreward": 7970, "Ġphilosoph": 44997, "ĠSS": 11643, "ugh": 12967, "Ġapps": 3798, "friend": 18028, "Ġupper": 2853, "Ġadvert": 26238, "Ġsnow": 1958, "Ġfrust": 30808, "Ġourselves": 4288, "Fr": 29220, "ĠDie": 6817, "ampion": 33001, "Ġdismiss": 11390, "Ġcere": 29012, "Ġsignal": 6029, "from": 7761, "Ġ).": 32801, "Ġ52": 3135, "Ġcrimes": 3474, "itors": 9314, "estival": 30474, "useum": 31093, "Ġcouncil": 1676, "ĠSaud": 29647, "May": 10004, "ĠGun": 6409, "ician": 14932, "ether": 17517, "Ġsufficient": 7719, "ĠHen": 8001, "sole": 37870, "Ġhistorical": 4566, "ĠFar": 4256, "ĠTurn": 10812, "Ġpin": 7756, "Ġsucceed": 6726, "mat": 9244, "lymp": 31434, "Ġtradition": 5589, "ĠOk": 5148, "Ġcro": 11398, "Ġdescription": 8194, "alle": 11186, "Ġsky": 6360, "Te": 16215, "Ġwidely": 3924, "Ġwave": 4605, "Ġdefinition": 8515, "ĠJews": 8609, "Ġcycle": 4943, "Ġrefere": 30114, "Ġbrings": 3291, "usal": 25016, "Ġalive": 4299, "Ġfrequently": 5705, "Ġintention": 6589, "ĠControl": 6007, "lv": 25091, "ystem": 37693, "Ġprivacy": 4144, "gent": 13907, "rence": 21557, "ĠQuest": 22360, "ĠChristmas": 1619, "Ġrail": 5569, "Ġcooper": 20105, "Ġtested": 4776, "ĠCapt": 13007, "asks": 40981, "Ġcomfortable": 3473, "Ġdelivered": 2781, "scape": 18795, "Ġdepth": 5581, "ĠGOP": 3932, "Ġwrites": 5789, "Ġassets": 1781, "Ġsav": 14065, "iments": 25132, "Ġtransition": 3868, "Ġartist": 3025, "ĠLook": 6893, "Ġlob": 22362, "Ġcomponents": 6411, "arity": 21528, "Ġwalked": 3203, "Ġroot": 9749, "Ġparticipants": 3597, "Ġnoticed": 5324, "Ġresc": 13210, "Ġnav": 31428, "ĠAdminist": 29781, "da": 6106, "utral": 37153, "plate": 29098, "Ġimportance": 3585, "Ġassert": 18088, "iously": 9997, "cription": 33112, "Ġinjuries": 1746, "ĠCheck": 4254, "Ġregistered": 3382, "Ġintent": 5927, "Ġmissed": 2039, "ographic": 25510, "Ġsentence": 3645, "ounter": 46014, "Ġassistance": 3485, "evin": 36937, "Ġdatabase": 8503, "Ġbuildings": 3413, "Ġclassic": 4187, "Ġthinks": 4265, "ĠOhio": 2042, "Pr": 21077, "ugg": 15106, "Ġfee": 4029, "pan": 12560, "Ġeffectively": 4296, "Ġfacility": 2122, "Ġbear": 4649, "Ġchapter": 7285, "Ġdogs": 3678, "ĠColumb": 25670, "Ġlatter": 5442, "itial": 48834, "Ġadmitted": 2641, "TV": 2915, "ĠGeorg": 13413, "Ġposts": 4570, "\\\\": 48669, "Ġlawyer": 2470, "Ġequival": 38933, "Ġmand": 17047, "Ġcontrolled": 4875, "ĠWalk": 9693, "ĠAndrew": 2224, "Ġmenu": 5765, "amental": 30095, "Ġprotected": 4371, "va": 3952, "Ġadministr": 32626, "oral": 15010, "Ġrein": 9493, "ĠSar": 4701, "Ġamounts": 5353, "Ġnative": 3763, "ĠMoon": 5648, "Ġrepresents": 3372, "Ġabandon": 12506, "Ġcarrying": 3406, "Ġtank": 6013, "mary": 22501, "Ġdeclared": 2998, "Tube": 47538, "Ġhat": 3988, "Ġpunish": 15392, "ellect": 45255, "mes": 12579, "Ġuniverse": 9468, "ĠRod": 6816, "phy": 16628, "Ġinfrastructure": 2112, "Ġ51": 4074, "Ġopposed": 4340, "ownt": 35185, "ca": 3245, "ĠMake": 5293, "Ġhardware": 6554, "Ġcoffee": 3895, "Rel": 29806, "bal": 8667, "world": 8331, "ĠSaf": 11881, "ĠSea": 3939, "inals": 17552, "Ġowned": 2164, "Ġhall": 5179, "ersion": 39565, "Ġdescribe": 6190, "ĠPot": 7622, "Ġportion": 4745, "Ġatmosp": 43118, "Ġgovernments": 3233, "Ġdepending": 6122, "Ġoffense": 2970, "Ġtrick": 7610, "awa": 6498, "ĠLine": 5562, "ĠVis": 10035, "ĠHard": 6206, "ĠOrig": 32432, "ĠClick": 2578, "Ġdesk": 8429, "ĠValley": 1739, "ĠSov": 41162, "Ġmovies": 4133, "Ġremark": 17680, "Ġmail": 7107, "Ġconscious": 13316, "Ġruling": 2255, "ĠRights": 3941, "Ġmedic": 26467, "hent": 37754, "ĠWomen": 2691, "><": 49007, "Ġreplaced": 4209, "ĠPrem": 22769, "ĠThanks": 4557, "Ġrenew": 11007, "ĠBall": 4125, "iform": 38263, "Ġshots": 2347, "Comm": 33479, "Ġarmed": 3234, "Ġconstant": 5891, "Ġtaste": 5840, "Ġrealized": 5426, "Ġbuff": 27793, "Ġmo": 7458, "Ġefficient": 5693, "Most": 2895, "oration": 18620, "ifies": 10687, "Ġcommunication": 4358, "Ġflood": 5005, "Ġconsequences": 4914, "Ġanyway": 6992, "igg": 11702, "ĠGM": 5323, "ĠThank": 3837, "Ġiron": 6440, "Ġevolution": 10795, "ĠCop": 9351, "twitter": 1556, "Ġ95": 6164, "Ġrelationships": 4158, "adel": 24451, "ĠYoung": 2880, "Ġproposal": 2570, "ayers": 24950, "uilding": 44725, "ĠHot": 6003, "ORE": 7563, "cos": 16254, "Ġcollabor": 33074, "PG": 8332, "axy": 39656, "Ġknowing": 4730, "Ġsupports": 4548, "owed": 9725, "Ġcontrols": 5656, "Ġmerely": 8315, "umer": 26229, "Ġathlet": 45316, "Ġfashion": 2734, "path": 22609, "Ġgift": 4085, "Ġera": 3567, "AND": 5945, "Ġkinds": 6134, "ĠKorean": 2238, "Ġlegit": 32369, "ulous": 19631, "Ġessentially": 5700, "Ġtherap": 49566, "nic": 12979, "Ġsuffered": 2152, "Ġhur": 23315, "Ġpromise": 4198, "Ġexcess": 7400, "Ġoverw": 42674, "Ġprime": 2654, "ĠHouston": 2499, "erry": 11228, "ĠMs": 2135, "RS": 8105, "2012": 14517, "Ġstores": 2326, "ĠOlymp": 14993, "Ġjourney": 3251, "Although": 13863, "Sub": 23055, "ĠEduc": 25823, "ĠChapter": 8749, "Ġrequests": 5034, "Ġconsumers": 2360, "Ġtiny": 5262, "Ġisol": 32922, "ĠFair": 3896, "ba": 3178, "ĠYOU": 10540, "Ġcrash": 2058, "celer": 24608, "Ġemotional": 3722, "Ġgoods": 3057, "Ġelected": 2736, "Ġmoder": 23758, "ĠLinux": 15826, "Ġblocks": 5491, "Ġisland": 2946, "ĠSociety": 3930, "Ġelections": 1727, "Ġbroadcast": 2308, "Ġcheap": 6162, "Ġnations": 3949, "Ġseasons": 2516, "400": 4017, "Ġwaste": 3844, "ĠSat": 8918, "Ġfields": 5447, "employ": 32198, "Ġprofile": 4392, "Ġauthors": 7601, "ALL": 7981, "ĠGra": 10621, "west": 10823, "ĠTy": 5957, "Ġdeaths": 3257, "Ġvacc": 37980, "Ġformed": 4829, "Ġdu": 4279, "Ġongoing": 2256, "ĠMuslims": 6299, "elf": 24973, "igure": 47547, "Ġassume": 6876, "ĠUkraine": 4174, "water": 5412, "Ġcoast": 3673, "Ġvoted": 2763, "gor": 26084, "ĠAS": 6015, "ĠMichigan": 2293, "aza": 11868, "ĠArm": 10617, "iro": 4712, "Ġflex": 18634, "asters": 22125, "''": 17809, "Ġwelcome": 2814, "arl": 11278, "Ġlocations": 3237, "igation": 18541, "ĠFil": 13663, "Ġbuying": 2159, "Ġarchitect": 12970, "Ġharder": 4851, "ĠCub": 18385, "Ġinterface": 12332, "Ġrestaurant": 2391, "Ġdiscover": 8286, "Ġexceed": 11514, "Ġfavour": 5976, "gery": 21712, "Ġduty": 4053, "Ġpitch": 3242, "ador": 9618, "ĠMach": 9439, "boy": 9902, "Ġresponded": 2334, "Ġextended": 3112, "hers": 10705, "Many": 10787, "raid": 25667, "ifer": 14087, "ĠIns": 6326, "Ser": 28498, "Ġmedium": 4761, "she": 8877, "ĠSports": 1847, "Ġmagazine": 4320, "utation": 31320, "Ġlimits": 4971, "ĠGall": 7155, "Ġexternal": 6731, "razil": 46829, "Ġyounger": 3240, "tle": 12607, "Ġremind": 8736, "ĠCON": 8748, "Ġimmediate": 3169, "Ġhidden": 7397, "Ġvolunte": 49588, "Ġsimpl": 24988, "odcast": 45795, "Ġphase": 4359, "dr": 10232, "Ġplot": 6197, "Ġexposure": 4895, "RI": 6934, "ograp": 45724, "vin": 6320, "anish": 28627, "ĠAcad": 20341, "ĠEngine": 20008, "Ġexpansion": 2919, "ĠPay": 6898, "Your": 12861, "Ġpushed": 3148, "ĠEll": 8961, "ĠHead": 3928, "Ġmarketing": 2474, "ĠAC": 7224, "ket": 19613, "Ġhits": 2323, "Ġgro": 11491, "ĠAge": 8927, "ĠScot": 10400, "][": 46386, "Ġstim": 43085, "ĠiPhone": 2733, "ĪĴ": 49846, "Ġnarrow": 6787, "ĠGetty": 4080, "ĠTurkey": 2769, "Ġperfectly": 6683, "Ġenable": 3155, "utch": 19162, "Ġprecise": 12548, "Ġregime": 4304, "Ġshif": 37503, "Ġcompens": 29281, "gun": 8215, "div": 26037, "Ġchosen": 4986, "ĠKen": 3410, "Any": 11913, "Ġtrees": 3980, "Ġrecommended": 5131, "ĠRen": 6340, "uable": 29785, "ĠHT": 31445, "Follow": 18622, "EG": 7170, "ĠHand": 7406, "ĠKenn": 19082, "Ġarguments": 7576, "Ġexists": 8785, "Ġbike": 4806, "ĠConserv": 24031, "Ġbreaking": 3433, "ĠGar": 4974, "Ġcrazy": 5373, "Ġvirtual": 6229, "aylor": 28897, "ixel": 47944, "Ġ1980": 5114, "Ġpermission": 5537, "ĠSeries": 3265, "Ġconsumer": 2267, "Ġclosely": 3615, "called": 4155, "Ġ54": 4431, "Ġhopes": 1991, "Ġarray": 8932, "ĠWin": 5711, "ĠLabour": 4165, "Ġspons": 48780, "ĠIre": 25332, "Ġpow": 30964, "Ġreaders": 5360, "Ġemployment": 4042, "Ġcreature": 20397, "Ġresulting": 5203, "Ġaccurate": 6030, "Ġmoments": 3423, "Ġargued": 3811, "Ġped": 16954, "During": 14229, "Ġ53": 4268, "ĠTal": 7765, "Ġsought": 2952, "Ġsuffering": 3606, "Ġicon": 9360, "lee": 7445, "Ġ($": 1358, "alian": 21999, "Â°": 12938, "Ġpra": 21950, "Ġbonus": 7944, "(\"": 46469, "ko": 3852, "Ġacting": 3501, "DE": 10089, "fall": 7349, "Ġcomparison": 6676, "Ġsmooth": 6921, "ĠNAS": 14680, "upp": 12151, "ĠJoseph": 3351, "eping": 24320, "ĠTake": 4624, "ĠMid": 4079, "Ġsending": 3981, "fast": 16963, "ĠFall": 9197, "Ġdealing": 4098, "user": 12105, "ĠOrgan": 9171, "Co": 8739, "Ġattached": 7391, "Ġsees": 3681, "%.": 2153, "Ġtypical": 6097, "ART": 11328, "Ġfinds": 5684, "ĠAsia": 1817, "umin": 18140, "ĠCore": 9025, "ĠEnt": 9860, "inent": 19336, "uce": 15431, "ĠBlood": 11391, "ĠNever": 9154, "Ġemails": 5575, "Ġhighlight": 6053, "Ġconfront": 10749, "atus": 29913, "uted": 13735, "Ġunus": 43565, "Ġtopic": 5674, "ĠAdam": 3086, "Ġble": 13819, "ati": 3648, "Ġunderstood": 6238, "Set": 28512, "struct": 25384, "TP": 15993, "Ġmob": 13099, "aa": 6621, "ĠStart": 2776, "pected": 23088, "sell": 5727, "Ġdedicated": 3688, "ĠCA": 5267, "uan": 7372, "Ġsongs": 3686, "escription": 49934, "Ġtech": 2903, "Ġrape": 5345, "Ġaside": 4364, "Ġgrant": 4470, "Ġ56": 4772, "sub": 10936, "Ġargue": 5848, "Ġcontaining": 8200, "Ġschedule": 3078, "Ġliberal": 6176, "Ġpublicly": 3271, "Ġheavily": 4008, "ĠUt": 11183, "iner": 5101, "ĠSection": 7162, "ĠCare": 3800, "weet": 21210, "ls": 6634, "Dis": 26402, "âĶĢ": 49192, "ĠFollow": 2184, "Back": 19085, "ĠIT": 3779, "Ġbes": 9988, "ji": 5186, "ĠHit": 15225, "ested": 11718, "Ġeverybody": 3370, "ĠSwed": 25517, "Ġfemin": 39334, "Ġfacilities": 2644, "Ġconven": 16602, "Comp": 24699, "ĠOS": 8192, "core": 7293, "Ġanx": 27442, "Ġdivision": 2757, "ĠCam": 4536, "ĠStan": 8995, "mates": 11139, "Ġexplore": 5393, "plom": 41009, "Ġshares": 327, "pload": 47098, "anes": 11372, "Ġideal": 5631, "eters": 20413, "ĠBase": 11056, "Ġplastic": 4136, "Ġdistinct": 11693, "ĠNetwork": 3658, "ĠSeattle": 3417, "Ġtrading": 1446, "ensus": 28376, "intend": 24656, "Ġexhib": 27937, "Ġinitially": 3225, "ĠFood": 3652, "Ġthousand": 7673, "ĠBusiness": 2090, "acter": 35995, "Ġparagraph": 17818, "Ġroughly": 3667, "Ġwww": 1662, "Ġcreative": 3904, "ĠConf": 10303, "Ġconsumption": 4850, "Ġfilms": 3541, "agan": 7060, "Ġobtain": 6925, "Ġtall": 6764, "Ġtor": 16535, "Ġacknowled": 47390, "Ġgrown": 3831, "alo": 7747, "KE": 6961, "Ġ400": 3675, "enders": 13563, "taining": 44530, "UG": 13644, "Ġsuicide": 4260, "Ġwatched": 3996, "ĠList": 9527, "ali": 3644, "rehens": 43341, "Ġsurrounding": 3817, "Ġpip": 35209, "Ġflying": 4731, "ĠJava": 24549, "ordan": 29742, "Ġserving": 2754, "inations": 17808, "post": 7049, "Ġsho": 14172, "Av": 23389, "Ġjail": 2878, "zy": 5144, "Ġ1999": 6193, "Ġ</": 49703, "Ġliterally": 5909, "ĠSir": 5348, "Ġexposed": 4924, "Ġlies": 5738, "star": 3641, "Ġbat": 6325, "Ġearned": 2208, "ĠDig": 16621, "Ġspecified": 17966, "ĠSeason": 5446, "Ġdegrees": 4176, "Donald": 19195, "Ġcentre": 2100, "Ġsharing": 3565, "Ġwinter": 2608, "ĠCO": 6247, "Che": 16764, "ĠÎ": 43662, "MP": 7629, "Ġunw": 10963, "Ġfewer": 4163, "ĠMir": 6512, "Ġsomewhere": 6152, "ĠKey": 4300, "Ġattacked": 4487, "ĠKir": 11596, "Ġdomain": 11170, "Ġstronger": 3651, "Ġ99": 6705, "Ġpenalty": 2861, "Id": 28081, "Script": 30276, "Ġdeclined": 1981, "Ġneck": 5397, "Ġfraud": 3526, "Ġcurrency": 2593, "Ġrising": 2227, "RC": 5199, "âĢ¦âĢ¦": 35218, "Hz": 37825, "Ġtab": 12207, "Ġtalent": 2959, "nam": 8697, "ĠNBA": 2762, "Ġvillage": 3375, "Ġlegs": 5856, "ĠNext": 4130, "Ed": 5404, "Ġacid": 10395, "Ġhyd": 13075, "800": 3913, "Ġinvolving": 3329, "ĠImage": 2960, "ĠBefore": 3224, "Fl": 16197, "Ġyesterday": 2350, "Source": 7061, "Ġterrorist": 4888, "Ġsup": 28836, "Ġsynt": 45774, "ĠSaudi": 2030, "Ġwest": 3072, "Ġru": 6365, "burg": 3321, "Ġvisible": 7097, "Ġstruck": 2322, "rison": 45361, "Ġawesome": 6344, "Ġdrawn": 4777, "Ġanswers": 5274, "ĠGirl": 9103, "ĠRam": 3513, "Ġthreats": 3455, "Ġdefeat": 3002, "osit": 30642, "Ġvent": 13228, "aturally": 44169, "American": 4310, "enda": 15205, "ĠHoly": 8427, "Ġrum": 11122, "%,": 4234, "case": 11173, "ĠHistory": 7298, "ĠYouTube": 4037, "Ġsituations": 5458, "ĠDNA": 5708, "Ste": 21426, "Ġsaved": 5305, "Item": 47599, "Ġrecip": 48365, "ologist": 6393, "Ġfaced": 2713, "Ġelig": 46820, "Once": 11475, "ĠLi": 5991, "uh": 2957, "Ġmistake": 5021, "ĠDivision": 2925, "ĠBell": 3043, "Ġsymptoms": 5298, "Â®": 8716, "Ġdomin": 39124, "Ġfalling": 3064, "Ġending": 3558, "ashes": 14829, "Ġmatches": 2856, "ĠOnline": 5855, "Ġexplanation": 8257, "Def": 17425, "redit": 35979, "Ġanymore": 5988, "ĠTotal": 5480, "ĠFOR": 5089, "ushed": 17387, "Ġletters": 5430, "Ġrisks": 2476, "ĠOK": 4954, "Ġreportedly": 2288, ":\\": 48347, "Ġplate": 5299, "Ġsubjects": 9352, "Ġattempted": 3751, "ifier": 24072, "iana": 8878, "Ġunlikely": 3752, "ĠThough": 3791, "uma": 5037, "ĠInvest": 12814, "ĠPrin": 26093, "ican": 12657, "ĠDar": 5355, "ĠColorado": 3004, "aug": 12361, "Ġveget": 37999, "aos": 34317, "ria": 6374, "Ġshel": 26282, "Ġmarked": 4760, "Ġ()": 36418, "Ġspr": 11085, "po": 5873, "ĠLink": 4341, "Ġdefe": 48776, "ĠJr": 2385, "Ġtheme": 4782, "Ġpassion": 5440, "ĠPen": 4676, "Ġinfo": 8574, "izer": 6315, "Ġshit": 15328, "ĠCivil": 5280, "apse": 26053, "cre": 34868, "Ġpoly": 11424, "Ġcomponent": 7681, "ĠCharles": 3163, "ĠIreland": 2487, "ĠProv": 13786, "Ġdoctors": 3333, "Ġgranted": 4159, "Ġpaint": 6345, "Ġhonor": 3712, "Ġsmoke": 4603, "Ġpayments": 3081, "Ġprimarily": 4212, "ĠKingdom": 5752, "rich": 5691, "atell": 26142, "Ġdeals": 2656, "Ġscheduled": 1768, "Ġfundamental": 6451, "Ġprotein": 8276, "Ġnewspaper": 2924, "Ġclients": 2539, "ython": 49006, "ĠDate": 10566, "hus": 25134, "Ġfeedback": 6456, "Ġstretch": 4140, "Ġcock": 24231, "Ġhotel": 2303, "ĠQueen": 3929, "Ġsugar": 4696, "Ġju": 14974, "Ġmilk": 5803, "Ġapproval": 2846, "ĠLive": 3561, "Ġequivalent": 6305, "efully": 24358, "Ġinsert": 27545, "zona": 45954, "Ġextension": 5064, "dri": 42552, "John": 10567, "Ġaccomp": 47331, "Sm": 23996, "ĠFund": 2896, "Ġconstantly": 5861, "Ġ``": 45518, "Ġgenerated": 5129, "ĠAction": 5828, "ĠPsych": 33251, "ĠTri": 6892, "Ġrecognize": 5281, "Ġvary": 10104, "pha": 44641, "ĠRa": 4833, "df": 36807, "etch": 29094, "ĠSoviet": 8297, "Two": 9058, "Ġpatterns": 8117, "Ġprofession": 12409, "aning": 19266, "Time": 14699, "ĠLim": 8300, "Ġcolors": 8089, "ĠAz": 4947, "ĠTR": 5758, "Ġinfect": 27802, "Ġphenomen": 44941, "Ġshell": 10785, "Also": 22412, "Ġputs": 4650, "Ġdelivery": 2996, "Ġbrown": 6219, "Ġprocessing": 5774, "Ġlights": 4666, "essage": 49528, "ĠBrook": 9062, "ĠAud": 11917, "lation": 35019, "Ġindustrial": 2683, "Like": 13721, "ĠBrazil": 2910, "rous": 21233, "ESS": 12147, "ĠLuc": 7483, "Ġsomehow": 7421, "Ġ85": 5663, "Ġproport": 49438, "Ġpoliticians": 3770, "Ġindicate": 6364, "Ġhole": 4683, "Ġtechniques": 7373, "Ġcompetitive": 2695, "Ġphr": 41473, "Ġvo": 17377, "istent": 21464, "ĠDream": 7419, "Ġcampus": 2894, "Ġaspects": 5894, "Ġhelpful": 7163, "Ġshield": 15978, "orse": 27209, "Ġtrigger": 7691, "mal": 10417, "Ġ58": 4893, "Ġtort": 17082, "Ġpersonally": 5636, "Ġtag": 6694, "Ġkeeps": 4719, "ĠVideo": 5338, "Ġbench": 3638, "Ġgap": 4044, "aire": 9556, "Ġeast": 3017, "Ġrecovery": 2752, "perial": 42383, "Ġprofit": 1963, "ĠMic": 8900, "Ġ57": 4981, "Ġcolon": 17735, "Ġstrongly": 5025, "style": 5827, "Ġallegations": 1857, "han": 4134, "Ġreporters": 1865, "jo": 3548, "rine": 24339, "arget": 45358, "andal": 17856, "Ġ03": 15171, "Ġflash": 7462, "trans": 9981, "Ġstrict": 8414, "Ġparking": 2932, "ĠPakistan": 1752, "Ġli": 16787, "Ġweird": 7735, "ĠEric": 2954, "Ġregions": 3806, "ĠJun": 6752, "Ġintellect": 36414, "ĠWH": 12707, "oding": 19519, "ributes": 13183, "upid": 35820, "ĠTit": 18125, "Ġfinger": 8411, "oria": 7228, "Ġelev": 14478, "ĠField": 4754, "Ġconclusion": 6427, ";;": 48640, "Ġfeelings": 6453, "Ġextensive": 4935, "Ġmixed": 4281, "Ġneuro": 14913, "vy": 11454, "Ġharass": 27395, "ĠCirc": 26762, "ouch": 12746, "Ġterritory": 4284, "Ġsuccessfully": 5116, "Mar": 10169, "Ġingred": 49567, "Ġoverwhel": 46936, "Ġlayer": 10490, "View": 22130, "Ġallies": 4181, "illance": 44672, "ĠThree": 2873, "Ġbunch": 6900, "Ġnormally": 6329, "Ġnetworks": 4836, "Ġsacr": 44301, "ĠCIA": 8335, "bles": 11060, "Ġchose": 4689, "Ġopponents": 4257, "Ġregardless": 6069, "Ġfranch": 32159, "Ġpref": 33284, "ĠPo": 6002, "Ġbridge": 4081, "anna": 4057, "ĠSilver": 5344, "Ġwage": 5007, "page": 8596, "rior": 41659, "Ġradical": 7371, "ĠLittle": 4046, "Ġmanip": 31208, "Ġsecretary": 2971, "Ġgang": 5188, "DR": 10644, "FA": 5944, "Ġdecent": 7297, "ĠSpirit": 11758, "Ġuncle": 11992, "ĠDevelopment": 2717, "Ġinvestors": 867, "Ġwalls": 6347, "Ġpublish": 10732, "Ġgenerate": 5368, "issions": 31358, "car": 5901, "Ġpromote": 3720, "Ġcutting": 3931, "Ġchest": 7050, "Ġdrinking": 4835, "Ġcollected": 4786, "Ġ72": 4801, "Ġhoping": 2818, "Ġembr": 48406, "gorith": 45909, "Ġwarned": 2449, "Ġinstructions": 9223, "OG": 10207, "ĠDid": 6553, "ĠAgency": 3131, "Ġgear": 6351, "Ġcriticism": 3633, "ĠFurther": 7029, "Ġutil": 14258, "anny": 13749, "Red": 15638, "Ġcounsel": 4778, "ĠAsian": 3102, "Ġreduction": 4878, "pool": 10416, "Ġteaching": 5307, "Ġdeeply": 4814, "iy": 4911, "Ġestimates": 2785, "Ġchoices": 5717, "Ġpermanent": 4398, "inem": 10748, "kel": 5576, "Ġfasc": 35439, "pse": 26731, "file": 21710, "ĠLow": 6207, "ĠPerson": 18404, "Ġtournament": 1967, "stal": 24370, "Ġmel": 15352, "UST": 11120, "ĠRay": 4622, "azi": 12934, "Val": 20320, "Ġcontained": 5558, "ĠHolly": 11254, "Ġwake": 3874, "Ġreveal": 4991, "Ġprocesses": 5588, "ĠISIS": 7550, "Ġ09": 12087, "Ġblind": 7709, "Ġsteel": 3689, "ĠBad": 5654, "Ġcarefully": 7015, "appy": 31953, "roit": 32345, "Ġgaming": 6548, "Ġhouses": 3960, "ĠColl": 6888, "Ġtruck": 2484, "erm": 8362, "Ġscored": 1008, "Ġoccas": 49975, "return": 30921, "bound": 4092, "var": 10806, "Ġsharp": 4406, "Ġafraid": 6023, "ĠEX": 10649, "amber": 19383, "cific": 45404, "Ġscheme": 3552, "NC": 6905, "ĠPolit": 16373, "Ġdecline": 2991, "Ġ1998": 6708, "Ġpushing": 3784, "Ġpossession": 3328, "Ġprivile": 45858, "Ġteachers": 2948, "Ġyield": 3363, "HA": 6826, "ĠDavis": 2505, "itled": 22764, "########": 49727, "Ġrig": 10727, "ĠDaniel": 3028, "acon": 17486, "Ġhide": 7433, "uten": 19995, "Ġcolleagues": 4025, "Ġprinciples": 7797, "Ġloud": 7337, "Ġsin": 10272, "ĠDemon": 19134, "Ġstone": 7326, "Ġ02": 15140, "Ġtaught": 5850, "Ġterrible": 6587, "Ġstuck": 4889, "ĠPolicy": 6275, "teen": 13665, "Ġimplementation": 5574, "ĠBBC": 3295, "ĠAPI": 21013, "Ġwheel": 5964, "allas": 35449, "Ġchampions": 4739, "olars": 43018, "player": 23233, "Ġrepeatedly": 3987, "ĠStill": 3180, "Ġlikes": 3829, "asty": 19626, "ester": 8939, "ĠCatholic": 4019, "RL": 17868, "Ġbath": 11824, "Ġnoise": 6496, "title": 14691, "Ġnorthern": 3285, "Part": 4741, "Ġmagn": 16150, "Ġfab": 32289, "ĠAsh": 4653, "Ġdispl": 38264, "Ġticket": 3682, "Ġmurd": 48528, "Ġalongside": 2863, "ĠMusic": 3920, "Ġriver": 4908, "ĠSteel": 8114, "ĠCL": 5289, "ĠPlayer": 8251, "ĠMult": 14910, "owing": 6932, "rep": 12597, "size": 10799, "Ġtur": 11342, "ĠGeorgia": 3090, "iscal": 26104, "raction": 22870, "Ġcable": 6129, "Ġ59": 5169, "Ġwins": 2693, "Ġupcoming": 2568, "Ġsurvive": 6008, "Ġinspired": 4083, "ĠEducation": 3061, "Ġstatistics": 6732, "ĠFoot": 13324, "iami": 40879, "Ġyellow": 5718, "ĠPage": 7086, ".-": 3358, "ĠHas": 6233, "Ġurban": 4879, "Ġax": 18884, "essel": 28633, "\\\"": 48110, "Ġquarterback": 2525, "Ġregister": 5124, "ĠLabor": 6338, "Ġabilities": 11360, "ĠFamily": 3664, "Ġvariable": 15594, "ĠPrice": 3655, "Ġcontem": 44634, "Ġthin": 7174, "ĠEqu": 8510, "data": 23687, "Ġgotten": 5335, "Ġconstit": 35293, "Ġasks": 6990, "Ġtail": 7886, "Ġexciting": 3571, "ĠEffect": 23816, "ĠSpanish": 3453, "Ġencourage": 3803, "inson": 9554, "ĠAh": 7746, "Ġcommitment": 2720, "CS": 6842, "Ġrally": 2669, "Ġ::": 35965, "Ġsubsid": 20113, "Ġspin": 6287, "Ġcaptured": 4705, "2018": 2464, "Ġinnoc": 40374, "Ġallegedly": 2346, "ĠCome": 8814, "Ġartists": 3528, "ĠNumber": 12270, "Ġelectronic": 5175, "Ġregional": 2174, "apes": 22179, "Ġwra": 37515, "Ġmyth": 17721, "prise": 22627, "ĠMiller": 2947, "ĠCreat": 27962, "ĠEpisode": 16012, "bell": 11312, "Ġdirected": 3660, "Ġextract": 14660, "Ġsorry": 6661, "Ġvice": 2626, "agger": 17864, "ĠSupport": 7737, "Ġ66": 5138, "ĠIron": 9940, "Ġwonderful": 4613, "Ġgra": 21797, "Net": 15721, "ione": 8525, "Eng": 35180, "Ġships": 7446, "ikes": 13349, "ĠKevin": 2363, "itar": 14369, "Ġactivists": 4826, "true": 29225, "ĠArizona": 2605, "enth": 28249, "ĠDespite": 2285, "ĠSE": 6324, "Ġhabit": 10870, "ernel": 48954, "Ġinqu": 27874, "Ġabortion": 6428, "Ġvoid": 13842, "Ġexplicit": 16045, "Ġengaged": 4009, "Ġangry": 5800, "Ġrating": 691, "Ġfrag": 24275, "bro": 7450, "icking": 10176, "dev": 20068, "Ġworried": 3915, "Ġobser": 49072, "Ġapartment": 3537, "ĠGT": 11045, "Ġestate": 2587, "ĠConstitution": 5879, "emon": 34344, "ĠSnow": 7918, "Ġcounty": 2109, "Ġdisag": 46925, "ĠStephen": 3259, "Ġimmigrants": 4175, "wind": 9428, "ĠNations": 3076, "Ġfolks": 5450, "Out": 14944, "Ġgall": 19869, "Ġtargeted": 3656, "Ġstead": 23789, "ĠBon": 5520, "ĠLib": 11135, "Ġinformed": 3978, "Ġ120": 5962, "chain": 26149, "idelines": 43859, "orough": 33123, "Ġdriven": 3185, "Ġregularly": 4595, "Ġbasket": 8107, "Ġprinciple": 9322, "ocument": 47432, "Ġstun": 16990, "ibilities": 38935, "ĠRoman": 7733, "ĠAbout": 1936, "Ġalert": 5439, "Ġdemocracy": 4593, "Ġrepresented": 4625, "HS": 6391, "cers": 19528, "parent": 20985, "Art": 23295, "pack": 12486, "Ġdiplom": 31038, "rets": 33064, "ĠNO": 8228, "Ġcapture": 5604, "ĠAdv": 17638, "Ħ¢": 41735, "Ġannouncement": 2443, "ĠLear": 25885, "Ġhook": 9337, "Ġpurs": 26934, "ĠSuch": 5598, "ĠCamer": 30370, "Ġrefugees": 4498, "ĠVe": 10978, "Pol": 32400, "Ġrecognized": 4984, "lib": 34748, "Ġhadn": 5844, "Ass": 26039, "Ġpilot": 4792, "ushing": 11286, "Ġreturning": 3357, "Ġtrail": 5592, "ĠStone": 5482, "Ġroutine": 6108, "Ġcourts": 4354, "Ġdesper": 46528, "Ġfriendly": 5192, "ĠItaly": 2627, "Ġpled": 39595, "Ġbreath": 8016, "Ġstudio": 4535, "NS": 6949, "Ġimpressive": 3444, "ĠAfghanistan": 4035, "Ġfing": 36955, "Ġdownt": 29407, "inking": 18957, "ĠRog": 19748, "iary": 17174, "color": 21685, "sex": 8821, "aron": 9303, "Ġfault": 7684, "ĠNick": 2651, "Down": 17853, "ĠRose": 3199, "ĠSouthern": 2944, "XX": 18313, "isodes": 42722, "List": 36583, "600": 4697, "Ġoutcome": 4258, "err": 14385, "Ġelsewhere": 5140, "Ġretire": 7865, "Ġpounds": 2697, "ĠGlobal": 1849, "People": 4763, "Ġcommunications": 4372, "Ġloan": 2541, "Ġratio": 1750, "ĠEmpire": 11492, "Ġgonna": 6908, "Ġinvent": 11022, "DF": 9380, "Ġ1970": 6200, "ĠCommon": 9732, "pat": 11632, "Ġpromised": 3604, "Ġdinner": 3630, "ĠHom": 11858, "Ġcreates": 6670, "Ġoperate": 4303, "verty": 45622, "ĠJordan": 2875, "etime": 16093, "Ġsustain": 9844, "Reg": 23007, "Ġincredible": 3997, "ima": 4261, "Ġwarrant": 5321, "Ġmm": 15408, "Att": 28062, "Ġlawsuit": 2672, "Ġreviews": 6173, "iture": 19103, "ĠSource": 4253, "lights": 20888, "ĠFord": 2493, "Ġ63": 5549, "group": 13839, "store": 8005, "Ġfeatured": 3520, "Ġforever": 6000, "Ġpoverty": 5263, "ĠPop": 7975, "ĠCNN": 3480, "azz": 7706, "abis": 28261, "aching": 13341, "Ġlaid": 4976, "ĠSupp": 13256, "Ġfilter": 14929, "ena": 4242, "ĠCommunity": 2573, "Ġcreatures": 15916, "uction": 27345, "ĠRoyal": 2930, "Ġassociation": 5259, "ĠConnect": 8791, "ĠBrad": 4770, "âĸĪ": 49811, "lers": 7906, "there": 8585, "ĠGi": 12422, "Ġvaluable": 5130, "ACK": 14940, "ĠTaylor": 2657, "Ġliquid": 6936, "ĠAttorney": 2745, "ĠCarl": 6832, "ĠFinal": 6858, "aga": 6080, "ĠWilson": 3095, "Because": 10105, "ĠProfessor": 6020, "aka": 5870, "Ġincredibly": 5784, "rance": 16557, "!)": 13278, "Ref": 31842, "sk": 7771, "Ġsolutions": 2643, "Ġatmosphere": 5466, "Ġblame": 4887, "umes": 19364, "ĠNob": 25856, "CA": 4054, "umps": 11768, "rical": 36057, "ĠPutin": 3176, "ĠDest": 27769, "oric": 23700, "ĠPA": 5931, "Ġrespectively": 4067, "wan": 6531, "Ġfifth": 1998, "âĦ¢": 13445, "ĠCry": 19803, "Ġgovernor": 2318, "resident": 27516, "Ġpurchased": 3584, "Ġhack": 14157, "Ġintense": 5676, "obs": 14247, "Ġorigin": 9813, "Ġdefine": 9914, "Ġcareful": 7316, "***": 15057, "Ġshoulder": 4793, "Click": 22473, "Ġtied": 3016, "Ġdestruction": 8181, "oured": 8855, "Ġnobody": 5907, "Ġho": 9379, "ĠExper": 26403, "Ġtip": 4767, "\";": 25718, "Ġtechnique": 9205, "Ġjur": 18603, "ĠPok": 34116, "bow": 14271, "Ġlegend": 7875, "Ġaccord": 10170, "Ġbusy": 3610, "ĠIntel": 6869, "Ġhang": 6713, "aki": 7387, ".]": 21838, "âĢĶâĢĶâĢĶâĢĶ": 43476, "Ġsurgery": 3012, "Ġreprodu": 37209, "Ġuniform": 8284, "Ġscenes": 5422, "code": 20414, "Ġ62": 5356, "lisher": 45487, "ĠHave": 6319, "phia": 46914, "Ġcrypt": 35867, "Ġrecon": 16689, "Ġscream": 22093, "Ġadopted": 5091, "Ġscores": 4391, "Ne": 14563, "ĠItalian": 3108, "including": 8529, "BO": 7997, "Ġindicated": 4658, "Ġentertain": 12043, "Gu": 14484, "Text": 39645, "iel": 5255, "Ġtwenty": 10328, "Ġengage": 4949, "offs": 10816, "ĠPacific": 3073, "Ġsmile": 6675, "Ġpersonnel": 3775, "Ġtoler": 30795, "Ġdoors": 4259, "Ġtone": 6328, "Ġmachines": 6271, "Ġentering": 4201, "tenance": 42192, "CO": 6335, "ĠJersey": 3123, "Ġforest": 6693, "Ġhorse": 5253, "Ġcomplaint": 3674, "ĠSpring": 5519, "yo": 9839, "ĠPlus": 4642, "eding": 13118, "ĠReturn": 11968, "quarters": 21899, "ials": 9532, "cow": 31645, "Ġacademic": 5286, "Ġfruit": 6231, "Ġ1996": 8008, "ogether": 40865, "Ġwine": 3984, "Ġpursu": 44276, "ĠSteven": 5031, "Ġlicens": 43009, "Who": 12375, "Ġclothes": 5418, "rection": 45447, "Ġsquad": 2837, "Ġstable": 4375, "Ġraw": 6087, "zens": 37016, "Star": 4239, "uties": 13472, "ancer": 20126, "Ġkeys": 10654, "ĠMu": 6186, "Ġcomplicated": 6336, "iger": 10168, "ĠText": 14159, "Ġabsor": 44302, "Ġ68": 5595, "Ġfunny": 6269, "Ġrelief": 3500, "ĠLew": 11218, "ĠCook": 4350, "Ġchart": 5966, "Ġdrawing": 5523, "GE": 8800, "Ġmodule": 20686, "ĠBull": 6518, "ILL": 10259, "Ġsalt": 6740, "00000000": 45947, "ille": 4061, "Ġresource": 5799, "away": 4384, "adelphia": 45929, "ĠBru": 11831, "Ġ67": 5545, "Ġsomebody": 4909, "Ġparticipate": 4064, "Ġrose": 1458, "wered": 41952, "Ġmuscle": 8698, "Ġconsent": 7132, "Ġcontinuing": 3348, "ĠGuardian": 8137, "ĠOrder": 9729, "regon": 46670, "Ġrear": 5081, "Ġprovision": 6397, "Ġliked": 6640, "rient": 39374, "Ġbra": 11689, "Trans": 19163, "Ġmeetings": 2891, "Ġtox": 46334, "Ġconvent": 43364, "Ġauto": 4485, "Ġrecording": 5492, "ĠSoft": 12726, "001": 19089, "ĠRoll": 13065, "Ġprogramming": 8326, "Ġpic": 1893, "Ġproved": 4362, "Ġstab": 16735, "ĠAst": 8937, "Ġcaption": 3747, "ulating": 11539, "ĠAttack": 23800, "Ġnewly": 3862, "Ġ1997": 7528, "fr": 12997, "Ġdiscipl": 41352, "ĠGreek": 5617, "Ġedition": 5403, "ĠDoes": 8901, "ĠBox": 7803, "ifle": 30715, "acket": 32561, "Ġpasses": 3974, "Ġguest": 4910, "Ġacceler": 27416, "itals": 19196, "UD": 13083, "Ġauthent": 36106, "ĠRest": 8426, "oval": 15273, "ta": 4349, "uine": 36087, "Ġarmor": 29828, "ĠTown": 3171, "Ġcompat": 20840, "Ġinches": 4877, "Despite": 15243, "Ġassign": 28467, "herent": 33591, "Ġprepare": 3886, "ĠMeg": 14938, "ockey": 16303, "Ġdepends": 7971, "Ġtracks": 5297, "watch": 11018, "Ġlists": 8204, "ĠNorthern": 2874, "Ġalter": 11330, "rec": 13139, "ĠEastern": 3877, "Ġcondem": 49362, "Ġeverywhere": 6128, "?'": 6600, "Ġaffili": 36758, "Ġfought": 4951, "\":{\"": 14220, "Ġmac": 13418, "itarian": 20444, "Ġscope": 7401, "ĠAL": 6019, "aws": 17415, "arms": 26852, "Ġque": 1192, "Ġenjoyed": 3776, "nesota": 46295, "Ġaggressive": 4353, "ĠStory": 3718, "ĠIV": 10831, "Ġrecipe": 10324, "Ġrarely": 7154, "ĠMedical": 3067, "value": 19434, "angel": 21340, "aying": 11918, "omething": 47486, "Ġsubsection": 45845, "Ġsouthern": 3174, "Ġfrequency": 13135, "rete": 34125, "rolled": 18040, "ults": 34869, "ĠNic": 13608, "Ġbehalf": 4137, "Ġsequence": 13931, "abet": 32479, "Ġcontroversial": 4456, "Ġcomprom": 40734, "Ġworker": 5015, "Ġmainly": 4412, "Ġalgorith": 43448, "ĠMajor": 5454, "orce": 34260, "gender": 29967, "Ġorganized": 5798, "Ġfake": 4486, "Ġconcluded": 4633, "ĠED": 12714, "ĠExec": 20297, "rage": 17952, "Ġchances": 3255, "berry": 8132, "ĠTrad": 10430, "Ġconfiguration": 20393, "Ġwithdraw": 8202, "Ġfro": 21016, "udes": 21683, "ĠBrother": 13233, "ĠBrian": 2995, "Ġtries": 5741, "Ġsamples": 7931, "Ġbid": 2311, "ĠGolden": 3274, "Ġphotograph": 10582, "ifest": 42076, "ĠDO": 14010, "ĠParliament": 3879, "****************": 41478, "Rem": 31157, "Ġcontest": 3096, "Ġsigning": 3442, "px": 38740, "ĠZeal": 39760, "âĶĢâĶĢ": 49546, "Ear": 45813, "Ġexit": 4205, "Before": 17206, "ĠCorpor": 26091, "null": 15755, "month": 2151, "Ġracial": 6689, "otted": 14265, "ĠVeg": 41911, "ĠReuters": 1201, "Ġsword": 20744, "pson": 28898, "ĠRomney": 11896, "aed": 20380, "Ġtrib": 28406, "Ġinner": 8725, "Ġprotocol": 11883, "ĠBi": 6479, "ĠMiami": 2561, "everal": 49771, "press": 13447, "Ġshipping": 6738, "ĠAmendment": 8352, "ĠHoward": 5218, "connect": 24501, "ĠDisc": 19020, "ĠJac": 16330, "iamond": 44318, "ĠTherefore": 9068, "ses": 24151, "ĠPrincess": 8334, "ĠUSB": 10478, "ĠAnth": 38188, "Ġsurveillance": 5786, "Ġapolog": 23842, "Ġ61": 5659, "owa": 18530, "Ġfulf": 39527, "js": 21978, "Ġluck": 6620, "usted": 15876, "ĠÂ§": 39207, "ni": 5107, "Ġanticip": 21428, "eman": 5649, "Ġwinner": 1924, "Ġsilver": 4334, "lla": 5104, "icity": 24414, "Ġunusual": 5425, "Ġcrack": 7009, "Ġties": 3405, "ez": 5841, "Ġpractical": 7708, "Ġprovince": 2791, "ĠPlace": 6067, "Ġpriority": 3887, "ICE": 9292, "Ġdescribes": 7448, "Ġbranch": 6084, "Form": 30039, "aska": 22137, "missions": 23363, "bi": 5605, "Ġporn": 13971, "ĠTurk": 19683, "Ġenthus": 48681, "Ġfighters": 5464, "Ġ08": 12112, "ĠDetroit": 2921, "Ġfoundation": 4811, "avid": 23656, "Are": 13755, "Ġjudgment": 7579, "cling": 21050, "Ġsolve": 6136, "ĠDesign": 7438, "Where": 13841, "hesis": 35571, "ĠTro": 6354, "after": 10669, "Ġneutral": 7974, "ĠPalestinian": 5791, "ĠHollywood": 3049, "Ġadvis": 33879, "ĠNon": 6965, "yes": 10932, "olis": 25628, "Ġreputation": 5070, "Ġsmell": 11362, "Ġbread": 8084, "ĠBul": 13020, "ĠBeach": 2467, "Ġclaiming": 4564, "Ġgenetic": 9186, "Ġtechnologies": 4233, "Ġupgrade": 6662, "rows": 13415, "Ġdeveloper": 6596, "ĠJosh": 3533, "ĠDisney": 4672, "erved": 13539, "ipal": 32483, "Ġunex": 39432, "Ġbarely": 6254, "then": 13040, "ĠPub": 17689, "Ġillness": 5467, "etary": 33267, "ĠBal": 4317, "Ġpatch": 9202, "Ġbutt": 17507, "Ġstupid": 12103, "ĠDog": 8563, "ĠDallas": 3160, "front": 9289, "iece": 39426, "Ġprotests": 3246, "Ġchat": 7359, "oenix": 42956, "Ġwing": 5897, "Ġparliament": 3589, "Ġ77": 6791, "osexual": 41746, "Ġrender": 19930, "ptions": 25240, "ĠCoast": 2565, "osa": 5166, "ĠGreg": 4275, "hop": 9547, "ĠManagement": 1753, "Ġbitcoin": 11388, "Ġrecover": 5312, "Ġincorpor": 46154, "orne": 12266, "ĠUsing": 8630, "Ġpreced": 31984, "Ġthreatened": 3711, "Ġspiritual": 10663, "ĠEvent": 11373, "ĠFred": 7734, "Ġadvertising": 4579, "Ġimprovements": 5139, "ĠCustom": 16583, "Ġerrors": 9126, "Ġsensitive": 5685, "ĠNavy": 5027, "Ġcream": 6353, "Look": 15833, "Ġexclusive": 5451, "Ġcomprehens": 32616, "Ġdeleg": 25112, "Ġconce": 21177, "Ġremem": 46223, "Ġstructures": 6609, "Ġstored": 10696, "ND": 13457, "Ġ1000": 10775, "UP": 9673, "ĠBudd": 30525, "AF": 8573, "woman": 7760, "ĠAcademy": 3536, "ðŁ": 6569, "sea": 16466, "Ġtemporary": 4667, "About": 21674, "esters": 37354, "Ġtickets": 3308, "Ġpossess": 15256, "inch": 3796, "oz": 3979, "Ġla": 897, "Ġcontracts": 3749, "Ġunp": 23089, "Ġcig": 47012, "ĠKat": 9075, "ultural": 41176, "asm": 16836, "Ġmountain": 6485, "ĠCaptain": 8977, "Step": 25093, "making": 5349, "ĠSpain": 2809, "Ġequally": 6681, "Ġlands": 8952, "aters": 11837, "Ġrejected": 3946, "era": 3843, "imm": 13255, "rix": 15072, "CD": 11579, "Ġtransaction": 2676, "gener": 20557, "lessly": 12445, "Ġ||": 45056, "Ġcos": 12793, "ĠHenry": 4858, "Ġprovisions": 7668, "Ġgained": 3491, "Ġdirectory": 31826, "Ġraising": 3282, "ĠSep": 6974, "olen": 22370, "onder": 17037, "Ġconsole": 12304, "inst": 16063, "Ġbom": 44010, "Ġuncertain": 9684, "150": 6115, "ocking": 12088, "Ġmeasured": 9550, "Ġplain": 10798, "Ġseats": 3202, "Ġdict": 28700, "SL": 11160, "afe": 20120, "Ġestimate": 3278, "izon": 30397, "athered": 27694, "Ġcontributed": 3162, "Ġepisodes": 7585, "ommod": 43331, "Gr": 15536, "ANT": 11088, "Ġ69": 5913, "Gener": 40025, "Ġ250": 5773, "viously": 34978, "rogen": 26759, "Ġterrorism": 4952, "Ġmovements": 7467, "entle": 44667, "ounce": 15810, "ĠSoul": 16455, "Ġprev": 21720, "ĠTable": 9513, "acts": 19170, "riors": 41410, "tab": 34108, "Ġsuffer": 6297, "Ġnerv": 38269, "Ġmainstream": 7302, "ĠWolf": 7602, "Ġfranchise": 3468, "bat": 12161, "Ġdemands": 4501, "Ġagenda": 4026, "Ġdozen": 4039, "Ġclinical": 5154, "izard": 44417, "ĠOp": 7286, "td": 26767, "Ġvisited": 3790, "ĠPerhaps": 6259, "Ġactor": 2701, "Ġdelic": 24234, "Ġcontribute": 5042, "Ġinject": 17951, "ĠEs": 7065, "acco": 20469, "Ġlistening": 6288, "Ġcongress": 12442, "ependent": 48066, "Ġpremium": 4549, "Ġ76": 5553, "ĠIrish": 3445, "Ġassigned": 5530, "ĠPhys": 27592, "Ġworldwide": 3612, "Ġnarrative": 7122, "otype": 42190, "mont": 7861, "base": 11070, "ĠBowl": 2616, "ĠAdministration": 4237, "Ġrelation": 9355, "ĠEV": 10210, "CP": 7496, "Ġcovers": 4865, "Ġ78": 7004, "Ġcertific": 45450, "Ġgrass": 6964, "Ġ04": 14722, "piracy": 40780, "ira": 3578, "Ġengineering": 4675, "ĠMars": 6507, "Ġunemploy": 47970, "ĠForeign": 3125, "stract": 47796, "Ġven": 21011, "Ġsteal": 8052, "Ġreplied": 6849, "Ġultimate": 7017, "Ġtitles": 4867, "dated": 26064, "Ġjoy": 5823, "aus": 7743, "Ġhyper": 8944, "aku": 7386, "Ġofficially": 4142, "ĠProduct": 7702, "Ġdifficulty": 9600, "peror": 47839, "Ġresulted": 4596, "ribed": 33273, "link": 12139, "who": 8155, "~~~~": 49130, "ĠSpeed": 15707, "ĠViet": 35530, "Wind": 31763, "ĠBarack": 4282, "Ġrestrictions": 5165, "ĠShare": 1702, "Ġ1995": 7969, "itionally": 18579, "Ġbeauty": 4002, "opt": 19693, "Ġmaps": 12879, "ĠCR": 4307, "ĠNation": 5857, "ĠCruz": 3590, "Will": 17485, "Ġelectricity": 4382, "Ġorg": 31118, "Ġburd": 32875, "Ġviolation": 4565, "Ġusage": 9453, "Ġpermit": 6687, "ĠChron": 41020, "ĠFant": 33679, "Ġnaturally": 8366, "Ġ07": 13470, "Ġthrown": 5629, "ĠAwoken": 49611, "Ġalien": 13058, "ĠHero": 15766, "ĠKent": 7890, "ĠRick": 4434, "rike": 39969, "Ġpace": 2877, "},{\"": 48880, "GL": 10020, "Ġpoison": 17712, "ĠTower": 7186, "Ġformal": 4828, "alysis": 45253, "Ġgenuine": 8916, "Ġkil": 12868, "aver": 9903, "Ġprocedure": 7089, "ĠProp": 13695, "intendo": 49229, "ĠMain": 4326, "asant": 35392, "Ġtrained": 5389, "Game": 20178, "ĠLoad": 38355, "ĠMA": 8981, "Ġcrucial": 4096, "Ġlets": 8382, "ĠFR": 7136, "Ġchampion": 2234, "101": 12636, "ĠConference": 2815, "Ġwriters": 6737, "Ġconnections": 7070, "Ġokay": 8578, "irms": 21871, "ĠRand": 10714, "Ġencounter": 6376, "ĠBuff": 18601, "Ġachieved": 4824, "Ġchecks": 6240, "iscons": 49106, "Ġassistant": 3167, "Ġwhenever": 8378, "ĠAccess": 8076, "ĠUr": 9163, "bin": 9413, "Ġclock": 6700, "isp": 19291, "opher": 35885, "Ġborrow": 12152, "Ġmad": 7758, "Ġpersonality": 6718, "only": 8338, "IST": 11595, "abama": 46947, "Ġgains": 3077, "Ġcommonly": 10266, "Ġterr": 17420, "Ġhypot": 43851, "Ġrely": 5864, "Ġtiss": 49169, "isconsin": 47124, "Ġridic": 42092, "function": 35435, "ĠOregon": 4316, "Ġuncom": 32275, "rating": 21172, "eland": 9999, "ĠNC": 9537, "Ġmoon": 6950, "annon": 17375, "Ġvulnerable": 4478, "utive": 19172, "ÂłÂłÂłÂł": 50144, "ĠRadio": 4611, "Ġwestern": 4669, "sect": 41147, "ĠTony": 3621, "Ġoccurs": 11493, "ĠOs": 4838, "ĠHon": 8768, "ÃŃ": 1977, "Ġvessel": 9190, "ĠScotland": 3430, "Ġdiscrimination": 6886, "Ġsubsequent": 7757, "string": 20951, "Ġfantasy": 8235, "ĠShadow": 19194, "Ġtestim": 35164, "WE": 9112, "iti": 4933, "ras": 5079, "Ġboat": 4293, "Ġmarks": 4863, "Ġordinary": 7945, "Ġren": 14237, "Ġrepresentative": 4915, "Ġpetition": 5265, "Ġ73": 6521, "Ġadventure": 9733, "Ġignore": 8861, "ĠPhiladelphia": 3378, "ĠSav": 9721, "VP": 12015, "Ġfactory": 5566, "Ġtasks": 8558, "Ġdepression": 6943, "zed": 16317, "................................": 46082, "ĠStorm": 5809, "Ġcogn": 28105, "Ġeligible": 4973, "Ġreducing": 4881, "via": 11409, "Ġ05": 15786, "Ġstriking": 5690, "Ġdollar": 1404, "ho": 5410, "OV": 13565, "Ġinstrument": 10320, "Ġphilosophy": 10561, "ĠMoore": 3404, "ĠAvenue": 2666, "Ġruled": 3447, "ĠFront": 7204, "INE": 13974, "ĠMah": 3634, "Ġscenario": 5665, "ĠNASA": 6109, "Ġenorm": 37455, "Ġdebut": 2453, "Ġtea": 6845, "Today": 5625, "Ġabsence": 5171, "Sim": 29656, "Ġham": 11402, "leep": 45841, "Ġtables": 9248, "ĠHeart": 6924, "MI": 7539, "Ke": 19226, "requ": 42172, "VD": 28732, "map": 32557, "Ġchairman": 2243, "Ġpump": 9296, "Ġrapidly": 6042, "vi": 6873, "Ġsubstantial": 6143, "EP": 9662, "des": 10067, "chant": 40805, "ilipp": 33465, "ĠSanta": 2005, "riers": 21724, "anchester": 46144, "Load": 47167, "ĠCase": 11109, "Ġsaving": 6549, "Ġ74": 6657, "ĠAFP": 5040, "erning": 37835, "ounced": 20155, "ĠMinnesota": 3161, "ĠWas": 6871, "Ġrecru": 36425, "Ġassessment": 4990, "ĠBron": 17228, "UE": 9162, "Ġdynamic": 6878, "Ġfurn": 31199, "ulator": 26122, "Ġpropag": 31464, "high": 3530, "Ġaccommod": 26468, "Ġstack": 17709, "ĠSus": 10471, "writ": 42002, "Ġreven": 45116, "ĠGodd": 47223, "ĠZealand": 3324, "abs": 10155, "Ġbrut": 43478, "Ġperpet": 21456, "hot": 10120, "Ġhardly": 7533, "ĠBurn": 7960, "ãĤ¹": 48791, "Ġsty": 42437, "Ġtransactions": 5538, "Ġgate": 8751, "Ġscreens": 8545, "Ġsubmitted": 4813, "Ġ101": 6560, "Ġlanguages": 11991, "ught": 44041, "emen": 15035, "Ġfalls": 5712, "Ġcoc": 29472, "Ĥ¬": 49171, "Ġstrikes": 5315, "pa": 6709, "Ġdeliber": 21614, "ĠIM": 9206, "Ġrelax": 12327, "annels": 34735, "ĠSenator": 4336, "Ġextrem": 34867, "Ġ},": 48037, "ĠDeb": 10532, "Ġbell": 10342, "Ġdisorder": 8364, "cut": 8267, "ĠiOS": 6894, "Ġlocked": 5930, "Ġemissions": 5035, "Ġshortly": 3691, "\"]": 42248, "ĠJudge": 3052, "ĠSometimes": 7411, "Ġrival": 3429, "Ġdust": 8402, "Ġreaching": 3970, "File": 9966, "Â¯Â¯Â¯Â¯": 50063, "inois": 36001, "ĠJason": 3262, "Ġsatell": 49381, "aret": 19508, "Ġstations": 4492, "Ġagric": 42411, "ĠTechnology": 3777, "comes": 32696, "ĠUnfortunately": 6802, "ĠChildren": 4278, "Ġapplies": 11459, "asted": 14317, "Ġanger": 6378, "ailability": 49403, "ĠDamage": 33571, "Ġcompare": 8933, "ĠStandard": 5787, "Ġaimed": 3448, "ĠBa": 5597, "anguage": 49520, "Ġregulation": 5746, "Ġjury": 3940, "Ġairport": 3062, "Ġsections": 9042, "ĠPrince": 2804, "emed": 33578, "Ġmedicine": 6150, "Ġhitting": 3022, "Ġspark": 9049, "olves": 34190, "Ġads": 5814, "State": 13360, "Ġfoods": 6592, "Ġreplacement": 5010, "Ġchicken": 5884, "Ġlowest": 3912, "Ġminds": 7283, "Ġinvolves": 6890, "ui": 3371, "Ġarrang": 48907, "Ġprocedures": 6196, "ĠWhich": 6834, "iversary": 42797, "Ġbills": 4033, "Ġimprovement": 3855, "Ġinev": 42153, "Ġexpectations": 2113, "Ġintellectual": 9594, "Ġspaces": 5938, "Ġmechanism": 9562, "250": 5714, "break": 10339, "ĠZe": 10915, "ĠTenn": 10797, "ĠBalt": 33766, "Ġbarrel": 5484, "Ġstatic": 25156, "mann": 4621, "Police": 9497, "Ġtips": 4965, "Ġhandling": 5516, "cus": 26797, "oded": 31819, "ilton": 26533, "iry": 12708, "Ġjournalists": 4225, "ourse": 21117, "Ġcomic": 10360, "Ġnomine": 49467, "ITY": 8662, "Ġversus": 4411, "Ġloop": 14018, "Ġsurf": 11641, "ĠIndust": 34859, "ĠHunter": 7126, "Ġbeliefs": 9734, "isan": 22471, "Ġsetup": 11808, "Ġbrew": 20040, "image": 20094, "Ġcomputers": 7796, "fol": 22588, "},\"": 37637, "ĠMedal": 17823, "Ġtaxp": 47979, "Ġdisplayed": 7899, "Ġgrav": 20969, "Ġfiscal": 2358, "Mon": 17312, "ĠMoscow": 3467, "ĠKong": 3532, "ĠCentre": 2521, "Ġcameras": 4387, "ĠMrs": 3801, "ĠHay": 6280, "Ġaver": 25542, "ĠKelly": 2826, "py": 17163, "Ġrequirement": 7404, "Ġentitled": 7919, "ombie": 42816, "Ġshadow": 9099, "agic": 25725, "ĠAk": 3773, "Ġelite": 6281, "Ġdivided": 6408, "Ġheading": 3393, "Ġcopies": 11288, "Ġlosses": 2687, "Ġvit": 14306, "ked": 10916, "ĠBry": 16360, "Ġans": 33141, "ĠSteam": 18120, "Ġreporter": 4439, "heim": 10436, "ĠItem": 39870, "Ġsuperior": 10295, "don": 7254, "erent": 21120, "Ã¶": 3671, "Ġtherapy": 5804, "Ġpeak": 4996, "ĠModel": 7192, "Ġlying": 6480, "Ġgam": 20577, "zer": 6403, "ritten": 40251, "Ġresponses": 8823, "Ġconsideration": 6077, "ĠBible": 11005, "Ġloyal": 8259, "Ġinstant": 10062, "Ġpm": 4751, "ĠForest": 5761, "Ã¼": 2768, "Ġextend": 4442, "Ġconvicted": 3828, "Ġfounder": 3787, "Ġconvin": 43844, "ĠOak": 6482, "check": 15954, "Ġscholars": 18118, "ped": 9700, "Ġoverse": 43894, "Top": 14323, "count": 11432, "ĠArk": 19365, "Â·": 43413, "Ġ06": 15007, "ĠLA": 5168, "md": 26296, "ĠLatin": 5862, "imental": 40955, "ĠCPU": 21032, "Ġsubstance": 6572, "Ġminority": 5688, "Ġmanufacturing": 3021, "Er": 28012, "ocolate": 43910, "Ġattended": 2922, "ĠManager": 4827, "rations": 27748, "Ġappreciate": 5478, "omy": 13604, "GBT": 47872, "idency": 41059, "BL": 7976, "Ġguarantee": 6210, "position": 14413, "Ġocean": 6444, "clude": 46962, "Ġheaded": 3475, "Ġtape": 7898, "Ġloose": 7082, "Ġlogic": 14578, "Ġproven": 5401, "Ġspir": 23425, "Ġadmit": 8109, "isa": 6619, "Ġinvestigate": 4830, "Ġ1994": 8148, "sylv": 44448, "ĠLost": 13932, "cest": 35678, "Ġ71": 6121, "Ġrequested": 5372, "Ġwindows": 6410, "ĠPokÃ©": 46697, "ĠWithout": 6830, "Met": 25869, "Ġbehaviour": 5759, "Ġreader": 10746, "Ġhung": 10601, "ĠKeep": 7238, "Ġroles": 4502, "Ġimplemented": 6264, "Ġblank": 15818, "Ġserves": 4542, "ĠJay": 3309, "Ġcited": 4418, "ĠFriend": 22733, "profit": 7699, "apon": 36951, "Ġrepair": 5989, "item": 36907, "arrass": 35700, "Ġcritics": 4853, "adi": 5416, "ĠFather": 9510, "Ġshout": 18066, "Ġfool": 17275, "Ġ88": 7953, "Ġproducing": 5591, "Ġlib": 21748, "Ġrounds": 5509, "Ġcircle": 7922, "Ġprepar": 30275, "Ġsubmit": 6471, "Ġnic": 18657, "morrow": 48180, "ãĥ«": 49080, "Under": 17245, "Ġvital": 4874, "atern": 36359, "Ġpassword": 14844, "Ġpublication": 5362, "Ġprominent": 5395, "Ġspeaks": 4922, "Ġbars": 5692, "Ġdeeper": 6635, "ĠMill": 5388, "ported": 31340, "Ġwid": 23772, "Ġbutter": 9050, "Ġsmoking": 7893, "Ġindicates": 8711, "Key": 28152, "ropri": 26049, "ĠFile": 8655, "alling": 9391, "asting": 15374, "ĠRus": 14762, "Ġadj": 34703, "Ġ79": 7589, "aval": 19339, "Ġpresum": 42314, "burgh": 24035, "onic": 10003, "Ġfur": 15503, "Ġpolls": 4583, "ika": 4151, "Ġsecondary": 5929, "Ġmonster": 13317, "igs": 15409, "ĠCurrent": 9149, "Event": 44879, "Ġownership": 4902, "endar": 29702, "Ġarrive": 5240, "ĠTax": 6394, "Ġnull": 23796, "ĠPriv": 27876, "Ġthro": 40282, "Ġkiss": 13301, "cat": 8729, "Ġupset": 4904, "angle": 14982, "itches": 30312, "ector": 26997, "ologists": 10974, "ĠGalaxy": 5325, "Ġcorruption": 3198, "Ġhint": 11602, "enter": 11798, "ĠHospital": 2392, "Ġgreatly": 8908, "Ġbegun": 5812, "esy": 43659, "Ġsoil": 6613, "ĠAnton": 12929, "Ġmaintenance": 4861, "ãĥ©": 49034, "Ġdozens": 4295, "Ġhumanity": 9187, "ĠAlabama": 3053, "Ġrom": 14233, "worth": 5985, "aping": 11470, "sylvania": 44347, "lah": 30166, "Ġgathered": 4366, "GA": 4164, "Ġattacking": 6666, "found": 19256, "ĠSquare": 5041, "Ġarbit": 21552, "ictions": 19047, "ĠWisconsin": 4222, "Ġdance": 3836, "ĠSaint": 6130, "archy": 37208, "Ġbaseball": 3403, "Ġcontributions": 5694, "Ġliterature": 13144, "Ġexha": 49920, "perty": 49328, "test": 21959, "Ġbab": 30301, "Ġcontainer": 11255, "letter": 36419, "Ġfallen": 4491, "Ġwebsites": 7656, "Ġbottle": 7304, "ĠSac": 27957, "Ġbreast": 6181, "ĠPL": 12901, "Ġveteran": 3142, "Ġinterviews": 5533, "ĠAle": 8445, "Ġbanned": 4968, "engers": 20434, "ĠRevolution": 13340, "inth": 35744, "Ġconcerning": 8082, "IVE": 10002, "Ġexpenses": 4068, "ĠMatthew": 4508, "ĠColumbia": 4635, "ds": 11622, "istance": 32556, "Ġentity": 10014, "...\"": 27223, "Ġreliable": 7058, "Ġparalle": 46515, "ĠChristians": 9278, "Ġopinions": 5086, "Ġindu": 48452, "low": 5481, "Ġcompete": 3511, "Ġthorough": 10675, "Ġemployed": 7460, "Ġestablishment": 7147, "igen": 8554, "ĠCro": 6466, "Ġlawyers": 3969, "ĠStation": 5088, "TE": 6433, "ĠLind": 7596, "ĠPur": 11834, "itary": 16669, "Ġefficiency": 5838, "âĢĲ": 39497, "ĠLy": 10888, "Ġmask": 11445, "Ġdisaster": 4463, "Ġages": 4864, "ERE": 23142, "esis": 25960, "ĠHold": 10357, "Ġcasual": 9881, "bled": 10288, "Ġenabled": 9778, "ĠEnvironment": 9356, "ĠIntelligence": 6558, "iper": 17453, "ĠMap": 18247, "ĠBE": 6362, "Ġemerged": 4373, "isdom": 46372, "Ġcabin": 11657, "Ġregistration": 5770, "Ġfingers": 10802, "Ġroster": 4459, "Ġframework": 7208, "ĠDoctor": 12521, "etts": 22527, "Ġtransportation": 4264, "Ġawareness": 4199, "Her": 13584, "Ġattempting": 6475, "Off": 22985, "ĠStore": 7248, "ÃĥÃĤÃĥÃĤÃĥÃĤÃĥÃĤ": 50081, "ĠKnow": 10690, "Ġdefence": 2994, "Ġscan": 14194, "ĠTen": 4527, "ĠChair": 8381, "ĠPH": 9715, "ĠAtlanta": 3317, "Ġfucking": 23523, "Ġanswered": 7173, "bn": 6316, "ĠKar": 4077, "Ġcategories": 6363, "Ġrational": 15699, "Ġcust": 39127, "Ġrobot": 9916, "Ġcorrectly": 12461, "Ġgif": 32710, "Ġgraphics": 12774, "mic": 15796, "Ġgrounds": 5619, "ĠOpp": 11053, "iate": 10599, "Ġdistributed": 7664, "Ġsanctions": 2637, "Ġchallenging": 4087, "uto": 11207, "Ġingredients": 7075, "Ġinvited": 4036, "Ġfounded": 4790, "ĠRequ": 30978, "ded": 17452, "Ġbowl": 5749, "Ġbrothers": 5396, "ĠHa": 4936, "IO": 6454, "Ġwages": 6729, "imore": 28545, "ocial": 35646, "Ġseed": 5018, "atively": 10481, "Ġaddresses": 8480, "ĠIowa": 4109, "abeth": 31012, "Ġattitude": 6784, "isd": 29306, "child": 14069, "Ġmole": 39120, "Ġdiscovery": 6953, "yard": 2675, "Br": 16366, "Ġ82": 7383, "Ġsupplies": 4217, "elling": 14139, "Ġdistingu": 48251, "CR": 9822, "Ġrecept": 41804, "Ġvert": 33566, "Ġswim": 6966, "bec": 13639, "door": 11219, "ĠYeah": 8976, "Ġgal": 22101, "Ġinteract": 10754, "ĠESP": 34652, "ĠCS": 7038, "amps": 9782, "Ġconvinced": 7013, "Ġobjective": 4554, "Ġdish": 8847, "ĠPhotos": 10878, "lad": 15356, "Ġdowntown": 3301, "oil": 14189, "inction": 40890, "Ġtomorrow": 3859, "ĠCOM": 15823, "Ġsurvival": 7967, "shot": 10393, "Ġsettlement": 4221, "Cons": 24514, "ĠXbox": 10444, "interest": 15979, "ĠSM": 7346, "argo": 22740, "eness": 14186, "Ġethnic": 7289, "bered": 30546, "Min": 20086, "ĠTok": 25282, "Ġincent": 48169, "ĠCommand": 9539, "Ġmaintained": 4925, "Ġbreaks": 6383, "bridge": 7820, "atar": 18416, "agg": 7165, "ĠFinally": 3347, "unicip": 46951, "ĠOnt": 13302, "left": 6960, "Ġrecognition": 4972, "Ġ*/": 48404, "ĠPers": 15499, "Ġwelf": 49200, "Ġaddressed": 4873, "ĠKansas": 3110, "Ġvirus": 6793, "Ġwhereas": 9641, "Ġpapers": 6665, "rams": 27809, "ĠMinistry": 2803, "Ġpleasure": 10483, "Ġacquired": 3566, "Ġduration": 13428, "jpg": 10474, "Ġcalm": 6327, "ĠNHL": 4693, "Ġburning": 6574, "Ġfolder": 32038, "icked": 14851, "ĠPy": 19972, "ĠIllinois": 3882, "Class": 21527, "ĠGoddess": 41838, "Ġperforming": 4655, "Ġwelfare": 6642, "jar": 11978, "Inter": 26267, "Ġlin": 24248, "Ġenhance": 6292, "Ġnotion": 9976, "fare": 17825, "ypes": 48951, "ĠArea": 4121, "Ġcannabis": 5194, "ĠDiego": 3402, "fs": 17884, "ĠManchester": 2361, "comm": 24302, "inite": 42524, "Ġcovering": 4631, "ĠSound": 8479, "Ġ1960": 7571, "Ġ84": 7994, "elect": 6930, "zing": 10293, "Ġcitizen": 6239, "Ġphones": 4247, "Ġraid": 10369, "Ġignored": 8266, "ĠObject": 35671, "Ġupload": 20021, "card": 6940, "Ġmodified": 10639, "Ġrooms": 5351, "iah": 7138, "range": 9435, "heast": 44085, "achus": 46798, "Ġsuggesting": 5542, "âĢĭ": 13635, "grade": 8425, "El": 9682, "Ġclothing": 5296, "Ġrh": 16448, "ĠHan": 6090, "unity": 36564, "encing": 17725, "ĠAustin": 4224, "secution": 31068, "tra": 9738, "dem": 12789, "ĠQual": 13559, "Ġheaven": 18478, "Ġstages": 5612, "Ġwedd": 44398, "plus": 7269, "ificial": 37465, "ĠImm": 14000, "ĠHo": 5082, "ieties": 29590, "Ġphrase": 11054, "Ġbrill": 46999, "actory": 27670, "Ġproviders": 4898, "Ġsilence": 7308, "Ġaer": 16482, "ĠAI": 4687, "ĠAdventure": 22080, "Ġplatforms": 4818, "Ġdemonstrated": 7646, "Ġinterf": 37725, "ington": 6598, "Ġraces": 4694, "Ġgrade": 4978, "ultane": 41954, "ĠThrough": 6278, "false": 22303, "Ġbow": 7323, "ĠAB": 6266, "Ġflavor": 12117, "Ġhistoric": 3575, "gov": 7354, "Ġcolour": 7705, "Ġviewed": 5915, "ĠEmail": 3593, "elcome": 42557, "Ġintervention": 6530, "Ġdiversity": 5845, "Ġperiods": 5788, "Ġreverse": 7213, "ĠVery": 12178, "Ġquote": 9740, "ĠLeft": 10039, "through": 11672, "Ġscrew": 21927, "Ġlanding": 6684, "Ġpill": 13106, "Ġwet": 7727, "Ġprotesters": 4800, "Ġrepeat": 7230, "aved": 12061, "erk": 13760, "Ġsalary": 5391, "ĠPennsylvania": 4367, "Still": 31133, "Ġmayor": 3647, "Ġkitchen": 4647, "Ġfeaturing": 4246, "ĠMuseum": 4355, "ĠTournament": 7647, "ĠFal": 13397, "Ġservers": 13282, "UC": 12945, "Ġanybody": 5670, "img": 34252, "ĠTrade": 4466, "ixture": 46368, "theless": 49142, "Ġfinance": 2879, "Ġclosing": 3172, "ĠPatri": 24835, "iac": 9504, "abel": 14286, "Ġ>>": 8488, "orous": 24477, "Ġfirms": 2566, "screen": 9806, "una": 4989, "Ġembarrass": 31312, "ulse": 32767, "Ġletting": 6901, "Ġthrew": 4021, "iley": 9422, "Ġchannels": 6237, "lan": 6847, "ĠVegas": 2461, "Ġsear": 38850, "Ġfantastic": 5500, "arre": 19205, "uzzle": 46849, "ĠDer": 6113, "Those": 11195, "Ġswing": 7021, "Ġsheet": 5462, "index": 18480, "cover": 20401, "ogan": 17302, "Ġvariables": 25083, "ĠTech": 4569, "Ġspoken": 5826, "achel": 19173, "ĠDa": 8318, "ĠMountain": 4743, "Ġloaded": 7973, "Ġfootage": 4338, "version": 21747, "Ġunl": 35237, "ĠPhoenix": 5524, "Ġthrowing": 5336, "Ġfiring": 5834, "Ġtracking": 6779, "Ġwidth": 22523, "Ġstruggling": 3306, "rooms": 16943, "otion": 19187, "Ġmonthly": 3708, "ĠServer": 30472, "Ġeggs": 7689, "open": 12592, "MC": 6018, "Ġ1993": 9095, "Ġhired": 4547, "Ġstayed": 4711, "ĠAllen": 3823, "Ġstro": 28561, "Ġ98": 8757, "step": 13975, "ĠTurkish": 4423, "Ġfabric": 10199, "isting": 15528, "ĠDom": 11349, "Ġdates": 5461, "Ġpron": 31651, "Ġbasketball": 2613, "Ġlucky": 5394, "ĠArabia": 3466, "Ġassumed": 9159, "esty": 27668, "Ġaffairs": 5185, "Ġglad": 7785, "ĠIndeed": 7908, "ĠFA": 6236, "ĠWord": 15690, "Ġjoining": 3736, "ifice": 39748, "pread": 47561, "irts": 24546, "ĠSelect": 10908, "Ġpopulations": 9883, "aware": 24590, "Ġnose": 8658, "Ġcomplaints": 4496, "start": 13124, "Ġscoring": 2314, "Thanks": 22086, "Ġmining": 4481, "Ġvisitors": 3074, "SH": 10237, "Ġdamaged": 5009, "Ġcharacteristics": 12720, "ĠPent": 17257, "DC": 5949, "Ġ83": 8101, "ĠSix": 5310, "rates": 18711, "Ġflags": 9287, "ĠBrew": 18020, "dog": 16319, "Mark": 10006, "////": 48900, "Ġexecution": 7356, "Ġjoke": 8018, "phones": 15797, "Ġtestimony": 5889, "Ġobst": 30896, "QL": 42111, "ĠCut": 13621, "Ġstudied": 8069, "ĠNintendo": 10396, "icket": 8638, "ĠNBC": 3890, "Ġlad": 20986, "ĠBra": 9076, "ĠMoh": 8097, "Ġkernel": 34751, "Ġoverwhelming": 8642, "Ġaged": 5180, "Ġapplicable": 10404, "ĠCond": 12108, "Ġroads": 3197, "ĠBlock": 11700, "made": 7078, "odge": 20305, "Ġcommands": 16388, "Ġoffices": 4088, "veland": 24890, "Ġtut": 15511, "Ġreceiver": 4797, "ĠFro": 16594, "Ġshopping": 3482, "ĠiP": 41002, "ĠStre": 12693, "ĠABC": 3943, "Ġentertainment": 4000, "ĠBow": 9552, "orted": 25654, "Mc": 13564, "Ġreads": 7005, "grad": 18252, "ĠCollect": 27883, "ĠâĪĴ": 42736, "ĠCapital": 1867, "ederation": 41447, "Ġemployer": 8850, "Ġinvolvement": 5292, "Ġanxiety": 6882, "alia": 6956, "Ġroof": 5645, "ĠAmong": 3687, "ĠDemocrat": 3661, "Ġstats": 13076, "ĠVill": 7296, "Ġconstitutional": 6100, "Ġreferring": 5056, "itty": 18308, "Ġtackle": 3692, "outube": 47729, "Ġbacked": 4094, "ĠHong": 3523, "ĠBroad": 8397, "Ġele": 16743, "ĠOtt": 25215, "Ġ1992": 8548, "hour": 4509, "achusetts": 45480, "Cal": 15117, "Ġdefeated": 5125, "Ġ81": 7694, "esp": 21359, "Ġseemingly": 6590, "was": 7325, "ĠJenn": 23710, "ĠKurd": 41797, "Ġgene": 10596, "Ġdiscount": 6720, "Ret": 27814, "ECT": 15004, "();": 47006, "Ġclubs": 4207, "Ġsid": 16742, "ĠMarsh": 11205, "Check": 26615, "Ġpp": 33906, "ĠEag": 44325, "idespread": 38327, "Ġbeings": 14766, "FT": 11615, "Ġintroduction": 7740, "ĠChange": 7229, "ARD": 11250, "Ġ110": 8017, "adows": 35207, "ierce": 34029, "Ġmeal": 5820, "author": 11515, "ĠBang": 11421, "lahoma": 39572, "Ġranks": 5546, "2011": 22748, "????": 27282, "max": 29459, "Ġcollapse": 6277, "Ġopens": 5699, "Ġecho": 23930, "Ġsoph": 33405, "Ġracist": 7159, "Ġenormous": 7934, "Ġwaves": 6995, "Ġtap": 5797, "Ġcomprehensive": 5145, ".--": 42604, "ĠRoy": 5470, "Ġfarmers": 3111, "Related": 22816, "aired": 35016, "rones": 30133, "ĠCrim": 22548, "Ġproportion": 10301, "Ġdesigns": 7191, "Ġnegotiations": 3377, "Ġvirtually": 8077, "ĠBatman": 17923, "Ġwarn": 11345, "Ġlegitimate": 8134, "mate": 10008, "Ġconvention": 8825, ",,": 38581, "netic": 45423, "ĠSD": 12723, "Ġconsistently": 6566, "Ġcompensation": 4660, "Ġpunishment": 8653, "Ġye": 32440, "Ġtie": 3318, "ĠBureau": 4750, "irlf": 49185, "ĠBu": 7351, "ĠAren": 26021, "ĠPhilipp": 25955, "Ġknife": 7023, "Ġmemories": 6180, "ĠRoss": 4012, "Ġangle": 11792, "Ġ86": 8162, "ĠThunder": 8314, "Ġrend": 24200, "ĠTour": 3637, "Ġcounts": 3948, "sung": 34160, "ĠImp": 17550, "Ġeducational": 5984, "Ġaccessible": 6500, "COM": 10370, "Ġdrew": 4855, "yer": 6426, "Gl": 16389, "amine": 19565, "ORT": 12154, "OB": 7912, "IB": 8863, "master": 12974, "Ġtrials": 7341, "ogy": 21370, "har": 4759, "ĠTrust": 3101, "Ġpreferred": 6813, "irlfriend": 38883, "ĠNev": 17423, "Ġbin": 6870, "Ġcow": 12094, "Page": 21823, "Ġsignature": 6543, "ĠBL": 12413, "700": 5987, "Ġretired": 3562, "Ġbytes": 46487, "Ġneighb": 49251, "ĠLegend": 17364, "Ġdevast": 41254, "Ġsuspected": 3986, "isons": 24806, "ĠPokÃ©mon": 26788, "scale": 8056, "Ġcapabilities": 5587, "Ġrevel": 20853, "Ġcheese": 7134, "dy": 7180, "igrant": 20593, "Ġfailing": 4551, "bits": 32131, "ĠHeroes": 24082, "ĠGhost": 19942, "ĠScient": 46244, "Ġappointed": 3873, "uri": 6151, "Ġinstitution": 6786, "Ġexpanded": 4939, "greg": 40745, "Ġmonitoring": 4872, "Ġpodcast": 8591, "Ġcoalition": 3782, "Ġ96": 8971, "Jo": 19842, "Ġstolen": 3579, "ĠSab": 6371, "Ġstops": 6897, "Ġholiday": 2317, "Ġintr": 19567, "Car": 9518, "Black": 11368, "ĠLGBT": 10194, "Ġwarming": 8232, "ĠAnderson": 3452, "Ġ89": 8572, "Ġproducer": 3436, "Med": 21243, "Ġaccuracy": 8611, "ĠMarvel": 8714, "izabeth": 46370, "ĠPatrick": 3499, "mony": 27583, "Ġmini": 7983, "acles": 26915, "Ġovert": 12836, "they": 10010, "Ġmembership": 6332, "ĠVen": 10336, "Ġexch": 46208, "Ġremoval": 7129, "ĠDave": 4475, "TY": 6175, "mad": 17497, "ĠFind": 6449, "Ġadequ": 27438, "Ġec": 20508, "Ġteeth": 9927, "Ġemotion": 11926, "Ġperm": 25639, "Ġsolely": 9382, "db": 33845, "Ġextraord": 42039, "IGHT": 8167, "cal": 11762, "Ġguidelines": 6401, "Ġdying": 8180, "Ġsuspended": 3456, "ĠPremier": 2275, "ĠAnthony": 3173, "elve": 41120, "Ġdad": 4252, "ĠEth": 24293, "ĠFootball": 3910, "Ġabandoned": 6978, "Ġ<<": 48188, "Ġmarch": 6674, "Ġhorror": 8444, "âĢ¦\"": 23962, "Ġchildhood": 6585, "Ġcampaigns": 6392, "Ġlunch": 4592, "ĠAlbert": 8098, "block": 16776, "âĸĪâĸĪ": 49869, "ounding": 10773, "Ġbone": 9013, "organ": 17247, "aders": 16434, "ĠFlash": 15626, "ĠDrive": 3936, "Ġtonight": 3422, "Ġwars": 9425, "ĠFL": 8854, "Ġformation": 9285, "const": 20836, "News": 5532, "Ġcompe": 47633, "orious": 31221, "ĠStaff": 5721, "Ġdiscussions": 4404, "ĠProtection": 5922, "ĠJam": 7832, "Ġcriteria": 8608, "Ġinstallation": 8809, "Ġaccomplish": 11829, "izza": 35280, "Ġpublisher": 10710, "Ġrescue": 3906, "ĠTry": 11087, "ULL": 25792, "ĠSom": 12199, "ĠHop": 13583, "oret": 13477, "ths": 15561, "ordon": 19228, "Ġpocket": 7524, "ĠInv": 9318, "Download": 44514, "ĠCrime": 6624, "Ġbene": 42364, "ĠGuide": 14670, "ĠAssembly": 3389, "Ġparameters": 17294, "IE": 7720, "ĠAlexander": 4837, "Ġconcert": 4192, "ĠSche": 9555, "Ġshoes": 5582, "Ġvisiting": 3918, "Ġrecall": 6001, "Ġbub": 23792, "Ġrural": 3826, "Ġconcrete": 6369, "ĠRos": 4168, "Next": 19192, "Russ": 42931, "Ġloans": 2973, "ĠShield": 17056, "Ġtrem": 33704, "hemat": 47160, "kg": 9043, "ĠHarris": 3740, "isition": 39353, "ĠMove": 18001, "ĠFC": 5429, "Ġfate": 7658, "ĠCho": 11501, "Ġtired": 7428, "Ġprincipal": 5402, "hist": 32001, "iences": 27797, "athy": 17543, "Ġsevent": 42081, "Ġmood": 6711, "Ġstrategic": 3461, "Ġdiseases": 6357, "Ġforum": 7900, "Ġtempor": 39216, "Ġheadquarters": 4351, "Par": 22011, "ige": 7876, "flix": 47274, "Ġguitar": 8669, "Ġ94": 8940, "Only": 19933, "Ġreleases": 8255, "roph": 21130, "================================": 49774, "Ġ600": 5594, "ĠContinue": 5603, "igate": 24343, "ĠCrit": 15143, "system": 19675, "Ġdisabled": 6242, "Ġunexpected": 7152, "ithub": 49665, "Ġunclear": 4381, "ĠEst": 5441, "Ġcontrad": 48318, "Ġstrategies": 4964, "ventures": 42506, "Ġpassage": 9078, "AME": 30104, "Ġimproving": 3927, "Ġreveals": 7441, "Ġdecrease": 7280, "ova": 3900, "Ġannoy": 36074, "ĠShort": 7787, "ĠLibrary": 5672, "Ġcyber": 5381, "nell": 13957, "ĠHur": 8657, "ĠCB": 6933, "Ġphotograp": 38409, "UI": 18157, "Ġsed": 10195, "Ge": 20981, "Ġ87": 8176, "Ġdiverse": 5544, "Ġencouraged": 4446, "Ġconspiracy": 6556, "Ġbirds": 7723, "Ġoperator": 5364, "Ġhandful": 6095, "Ġclassified": 8967, "?)": 16276, "Ġdramatic": 5386, "Ġinvestigators": 3725, "ito": 4842, "Ġwidespread": 5859, "ĠRoom": 8499, "----------------------------------------------------------------": 49308, "Ġcollective": 6981, "Ġjournalist": 5226, "String": 34222, "Ġtemperatures": 3971, "ila": 4882, "Ġguid": 46783, "Ġinspect": 18973, "Ġmissile": 4379, "ĠMayor": 3129, "Ġmanual": 12769, "Ġsimultane": 49132, "Ġratings": 2945, "Ġsuck": 23829, "Ġ97": 8783, "Ġuniversal": 10547, "Ġpharm": 21890, "Ġdisrupt": 12414, "iano": 5472, "AV": 10612, "Ġft": 16935, "Ġstatist": 45747, "olds": 10736, "ĠWalker": 4461, "php": 28043, "Ġundert": 26438, "ĠLas": 2588, "ishop": 44517, "ntil": 49497, "reshold": 45749, "ĠWhether": 5994, "Ms": 13123, "Ġdeny": 7631, "ĠCloud": 7941, "Ġprovider": 3696, "Ġsurviv": 44204, "ĠUpdate": 14686, "has": 7333, "Ġmistakes": 6160, "charge": 15040, "pled": 18331, "rity": 38039, "Ġnode": 37908, "ĠMassachusetts": 5517, "ools": 22890, "lication": 48020, "Ġfails": 10578, "emale": 49307, "ori": 6249, "backs": 6205, "Ġshirt": 6399, "Ġ''": 12801, "ĠNAT": 36233, "Ġwaters": 5794, "elson": 16475, "Ġease": 5136, "Ġscar": 14061, "Ġcontents": 13654, "mind": 28583, "Ġcontribution": 5883, "Ġshr": 15383, "Ġhanded": 4507, "Ġstability": 5443, "Ġtrave": 49352, "Em": 16750, "Ġmirror": 9807, "123": 19644, "Ġweigh": 9832, "Ġfiction": 11845, "ouver": 45624, "istant": 33388, "rition": 46956, "ĠFed": 2337, "Ġphysically": 7217, "Ġstake": 1968, "ĠArticle": 6776, "ĠArc": 15424, "ĠLewis": 3577, "ĠMind": 9201, "Ġdemonstrate": 8085, "Ġprofits": 4632, "vision": 14675, "omic": 30344, "olid": 30912, "Ġbattles": 9531, "Ġdrives": 6790, "Ġeastern": 4580, "ĠSony": 6366, "!!!": 16506, "aration": 36466, "vard": 29013, "ĠGL": 12209, "portation": 41067, "Ġ92": 8403, "Ġlawmakers": 2648, "Ġprotecting": 6244, "ĠEPA": 6865, "Ġyeah": 11380, "Ġshame": 9208, "olph": 32489, "even": 12963, "xit": 37845, "Ġattach": 24051, "Ġrepresenting": 4561, "Ġobs": 39048, "ĠUtah": 4514, "iffs": 13980, "ĠFreedom": 7978, "Ã³": 1479, "AK": 7140, "Ġincidents": 4495, "itage": 37061, "Ġviewers": 5017, "cd": 28690, "Ġmouse": 18292, "Ġclar": 17691, "Ġaccordance": 10753, "Ġbot": 14084, "cor": 7215, "ĠSummer": 6524, "held": 11706, "Ġinnocent": 7850, "Ġinitiative": 3893, "ols": 11925, "________________________________": 40321, "Ġspots": 5284, "pace": 18851, "Ġconventional": 9164, "Ġcorporations": 9053, "Ġblocked": 4953, "HD": 13022, "attered": 26252, "Ġrefers": 12859, "Ġbuck": 13182, "ĠDigital": 6282, "120": 10213, "Ġtopics": 7614, "TF": 20249, "Äģ": 18195, "brid": 21676, "reement": 43563, "Ġunderlying": 7482, "ĠMember": 10153, "Ġinvestigating": 3219, "Ġpregnancy": 6690, "Ġtouchdown": 3799, "ĠBand": 6191, "ĠCaller": 25368, "Ġinstances": 10960, "PP": 5756, "wa": 2739, "Good": 12350, "Ġ1991": 9633, "ĠCold": 7810, "Ġfears": 4606, "Ġremarks": 4166, "ĨĴ": 49823, "atal": 14720, "Ġmit": 6286, "Ġexperiments": 15491, "ipt": 10455, "Color": 44287, "indu": 36232, "Update": 39962, "Ġ93": 8060, "Ag": 19897, "Ġå": 47111, "ancouver": 40601, "Both": 16991, "Ġjudges": 4674, "Object": 46674, "Ġstere": 45254, "umbn": 49762, "Ġparticipation": 5740, "ĠStars": 7144, "ĠJere": 34328, "Ġweekly": 4114, "ĠBan": 5981, "Ġconversations": 5475, "ĠPitt": 9386, "uz": 4987, "ĠIndiana": 4552, "ĠKick": 16832, "Ġinfection": 7910, "Ġheroes": 10954, "Ġsettled": 5668, "Ġstrip": 9572, "Ġhal": 12193, "Ġdump": 12371, "ĠSci": 22640, "Ġles": 7427, "Ġreferences": 13115, "ĠURL": 33000, "ĠBridge": 4679, "Ġwanting": 6923, "Force": 36832, "Ġexclus": 25948, "Meanwhile": 38488, "mn": 17673, "Ġgentle": 16634, "maker": 5406, "senal": 49872, "ĠGro": 7461, "ouri": 22805, "ĠRain": 8699, "ĠAlliance": 6035, "Ġlift": 5258, "ela": 6658, "SD": 6243, "ĠCleveland": 2986, "Ġranked": 4173, "Ġstadium": 4773, "Ġdeadly": 4847, "ä¸": 46015, "Ġriding": 5793, "aria": 8954, "ĠArmor": 43378, "Ġdocumentation": 14877, "ĠGreece": 4644, "reek": 18230, "Ġlens": 10373, "ĠSa": 4141, "Ġgross": 4200, "ĠEmer": 11746, "agers": 14979, "ĠDub": 11558, "ĠRh": 8778, "ĠAMD": 15297, "Ġarrival": 5237, "Ġdesert": 10348, "Ġsupplement": 15981, "ĠResp": 40076, "Ġknee": 4117, "Ġmargin": 2759, "font": 42060, "ogg": 6038, "2010": 24789, "ĠPir": 21299, "ĠProm": 10772, "ivals": 34181, "Ġintake": 14797, "Ġdifferently": 8225, "ugs": 16148, "Ġbits": 15239, "cluded": 26441, "Ġsearching": 6062, "ĠDu": 5620, "umble": 15373, "Ġfunctional": 12628, "ĠBaltimore": 4766, "ĠCould": 9918, "Ġdesired": 12762, "Ġcircuit": 9326, "ĠLyn": 14122, "ĠGO": 11932, "ĠFalse": 35297, "repre": 46737, "':": 13373, "alties": 31438, "Ġminim": 15970, "Ġdrove": 4024, "ĠShould": 7698, "Ġhip": 6605, "Ġpros": 15501, "Ġutility": 6041, "ĠNature": 10053, "ĠMode": 22158, "President": 6517, "opp": 10223, "rat": 6528, "formance": 47196, "Ġconcentration": 11772, "Ġfont": 28716, "ĠBud": 11504, "Ġamid": 2876, "Ġrevers": 33113, "ĠML": 10725, "Bar": 14507, "Ġinteraction": 10405, "Ġjurisd": 44697, "Ġspells": 20154, "dep": 17272, "fil": 18419, "Ġcivilians": 6321, "utter": 12158, "ĠCooper": 5097, "ĠBelow": 4421, "Ġentrance": 7266, "Ġconvert": 10304, "Ġcontroversy": 6170, "owered": 45601, "Ġcontrary": 11159, "Ġarc": 13972, "ĠExecutive": 2483, "ĠOfficer": 2817, "Ġpackages": 8368, "Ġprogressive": 8212, "width": 36097, "Ġreserved": 1875, "vol": 13728, "ĠSamsung": 3797, "Ġprinted": 11118, "Ġcenters": 5228, "Ġintroduce": 6581, "ĠKennedy": 5076, "Ġodds": 5995, "Ġsurely": 8349, "Ġindependence": 5201, "Ġpassengers": 3670, "reprene": 42103, "ĠBeh": 18775, "Ġloves": 6138, "ĠESPN": 4944, "Ġfacilit": 30893, "Ġidentical": 14085, "Ġdoct": 40975, "Ġpartnership": 3088, "conf": 17075, "ĠHide": 27646, "Ġconfused": 10985, "ĠCow": 8406, "Men": 17762, "Ġwrest": 22160, "ĠIraqi": 7780, "Ġholes": 6538, "ĠStudies": 9307, "Ġpregnant": 5283, "hard": 9635, "Ġsignals": 8724, "IX": 9482, "Ġpulling": 6539, "Ġgraduate": 5318, "Ġnominee": 6615, "Date": 39525, "Ġpermitted": 11047, "ĠâĤ¬": 4480, "ĠOklahoma": 4020, "Start": 33724, "Ġauthorized": 8672, "Ġalarm": 8054, "ĠCos": 11013, "van": 9965, "Ġgenerations": 6808, "cular": 32188, "Ġdragon": 28021, "ĠSoftware": 11143, "ĠEdward": 7393, "Ġcontroller": 17554, "Sen": 24365, "gered": 40927, "ĠVik": 16706, "Ġapproached": 5508, "Thank": 13987, "Ġcance": 21338, "Ġformula": 9288, "ĠSmall": 7090, "Ġweakness": 8269, "Ġramp": 6854, "itudes": 25917, "jud": 12864, "Ġbrilliant": 6967, "Ġaccus": 23123, "source": 17747, "Ġ800": 5735, "ĠEvil": 26780, "Sw": 15417, "Ġhomeless": 5506, "week": 3583, "iens": 27187, "rics": 18715, "ĠThird": 7470, "TO": 6390, "Ġorganic": 6523, "Ġpresentation": 5209, "agh": 7669, "ĠDownload": 9147, "vation": 19914, "Ġassembly": 6559, "orable": 18911, "holders": 7509, "ĠBernie": 13191, "ĠHelp": 10310, "Ġtong": 45299, "ĠFight": 14381, "Ġbeach": 4105, "Book": 24751, "ĠLic": 24154, "Ġrush": 6187, "ĠRound": 8208, "oup": 18615, "ĠMarx": 28029, "Ġcalculated": 9658, "ĠDevil": 25501, "ĠSarah": 4143, "Ġoccasionally": 10930, "Ġbullet": 8894, "Available": 47354, "gate": 7357, "Ġ91": 8301, "Ġhosp": 22377, "Ġpromises": 5343, "ĠHIV": 7947, "ĠStadium": 2689, "ĠStock": 3412, "ĠCorporation": 2824, "gage": 42307, "NG": 5054, "ĠCredit": 3560, "Ġsne": 18013, "ibl": 41074, "Ġaccum": 33232, "such": 16918, "Ġterrorists": 7263, "Ġconsciousness": 16253, "ĠZh": 20045, "Ġdrama": 4149, "oola": 41395, "piration": 41678, "Ġlabour": 6610, "ĠNin": 17450, "Ġutter": 18672, "Ġdemocratic": 7368, "Ġassass": 39257, "ilation": 29357, "Ġgest": 18371, "Ġabroad": 5358, "Ġmetab": 49239, "Ġsorts": 9477, "Ġflav": 37564, "UB": 12027, "Ġmg": 17844, "ĠNothing": 10385, "ĠOd": 7032, "Ġmusical": 4388, "2009": 23301, "Ġdrops": 9305, "ocated": 23283, "ateral": 36258, "000000": 33413, "Ġgre": 14382, "Ġequality": 9057, "Ġburden": 6976, "Ġvig": 28131, "ĠLeader": 5337, "------------": 46156, "Ġceremony": 2844, "Ġfighter": 7251, "Ġactors": 5552, "Ġæ": 47416, "aman": 7243, "Fi": 9474, "Ġalign": 12432, "puter": 48428, "Ġelder": 15172, "ĠNSA": 19711, "Ġrepresentation": 8985, "ĠOntario": 4170, "ITH": 27698, "usalem": 44651, "Ġharassment": 4331, "itzer": 19903, "Ġsymp": 46987, "Ġboxes": 7644, "ĠDR": 10994, "Ġmanifest": 19318, "atre": 19956, "Ġ^": 37249, "Ġdies": 8524, "leton": 9991, "Ġmissions": 10779, "ethe": 36980, "Ġresolve": 5728, "Ġfollowers": 6059, "Ġasc": 24690, "Ġkm": 6301, "lord": 30669, "ammed": 21639, "Ġsilent": 8454, "ĠAssociated": 1562, "Ġtiming": 5801, "Ġprisoners": 9545, "ĠKings": 5414, "ĠFive": 4934, "Ġtower": 9368, "Ġapproaches": 8369, "Ġprecisely": 12810, "Ġbureau": 12331, "ĠMother": 8133, "ĠIss": 19285, "Ġkeyboard": 12722, "itual": 47388, "Ġfunded": 6140, "Ġstaying": 4959, "Ġpsychological": 10947, "Ġmile": 7245, "ĠLeon": 9213, "ĠBarb": 12897, "will": 6677, "Ġwider": 6012, "ĠAtlantic": 5038, "Ġtill": 6612, "ĠRome": 8947, "rot": 12179, "Ġaccompan": 38963, "Ġflour": 15039, "aco": 12921, "World": 10988, "ĠExpress": 3619, "ĠYu": 11698, "Cor": 15228, "Ġpleased": 4343, "party": 6493, "Ġpointing": 7547, "Ġinflation": 2680, "Ġroy": 23893, "Ġ),": 31311, "ainer": 22022, "Ġwedding": 3312, "ormon": 46408, "Ġrequiring": 7980, "Ġqualified": 6048, "Ġsegment": 2835, "END": 9309, "Ġsizes": 10070, "eals": 44933, "Ġcorrupt": 10334, "assador": 45690, "Ġceleb": 25622, "Ġdreams": 7416, "ĠMess": 15212, "Ġchecking": 8405, "ĠVersion": 35110, "Ġpreparing": 4568, "Ġactively": 7313, "ĠDiff": 33163, "Ġlux": 30847, "ĠWinter": 5205, "acteria": 42069, "ĠNE": 12462, "Ġdeputy": 3193, "Ġtransgender": 7940, "Ġsummary": 4819, "Ġinher": 39449, "eries": 9709, "char": 24262, "ĠYan": 21114, "Ġknock": 7956, "ĠPath": 16234, "Ġlip": 11356, "roller": 32121, "Ġimpression": 8450, "Ġcelebrate": 3379, "Ġslide": 7117, "Ġguests": 3958, "Ġclip": 7200, "FS": 7881, "Ġsavings": 4522, "Ġcaptain": 3449, "Ġlegacy": 5184, "ĠDenver": 4465, "Ġwounded": 5424, "taboola": 50039, "ACT": 13709, "Ġpursue": 5445, "Ġoxy": 31926, "Ġq": 2231, "Ġsemi": 4126, "ĠNeed": 10145, "ĠAffairs": 4702, "Ġobsc": 33718, "Ġchecked": 7869, "Ġdual": 6594, "Code": 41555, "ĠMD": 8909, "lem": 10770, "ulty": 38431, "ĠÂ©": 3705, "ĠElizabeth": 4690, "Ġcenturies": 11505, "arded": 16230, "src": 45692, "Ġevident": 10180, "ennis": 28828, "atin": 16779, "Ġunemployment": 5755, "ĠMario": 8782, "Ġintim": 38126, "Christ": 26352, "Ġbiological": 12243, "Ġsoldier": 9716, "ĠAdded": 25052, "Ġmath": 10638, "ĠGil": 8205, "Ġbias": 9415, "Ġdating": 4927, "ĠOcean": 5860, "Ġmice": 15540, "Mus": 35136, "hire": 6867, "ĠTes": 13462, "Server": 47576, "limited": 27829, "Size": 45698, "Ġmeters": 7679, "Ġrocket": 7726, "essee": 39941, "Ġcertificate": 10921, "ĠIranian": 5051, "ASS": 17042, "Ġgrid": 7961, "Dec": 15953, "Ġrolling": 6346, "commun": 27217, "ĠSweden": 6171, "bury": 4232, "Ġtissue": 11576, "Ġracism": 8222, "ĠLocal": 4004, "Ġmystery": 9001, "Ġexamine": 10154, "Ġstem": 10114, "Ġsits": 6476, "Ġhoped": 5207, "oting": 12653, "Ġdialogue": 6054, "Ġpersu": 31356, "Watch": 14287, "lay": 8433, "MAN": 11350, "Ġchronic": 7642, "ĠPortland": 5926, "market": 2989, "ĠSEC": 3614, "Ġparallel": 12980, "Ġscandal": 4220, "Ġcarries": 5723, "Ġphenomenon": 10632, "human": 19003, "acker": 13374, "ĠOx": 13416, "Ġretirement": 3832, "tainment": 43427, "ovie": 42937, "ĠGear": 17720, "Ġduties": 5941, "Ġdose": 12234, "Ġscroll": 25715, "MB": 8651, "inf": 9433, "Ġsauce": 8929, "Ġlandscape": 5252, "reddit": 48724, "ĠChampionship": 3261, "ĠReddit": 6844, "alid": 29849, "Ġcoin": 12911, "Ġovers": 10981, "Ġposting": 6016, "about": 9006, "Ġfel": 14383, "andy": 10708, "Ġbold": 7457, "Ġfocusing": 5650, "effect": 26715, "GR": 11621, "Ġdeemed": 7661, "Ġrecommendations": 4664, "Ġstepped": 4425, "Ġvoter": 6679, "ĠDeep": 8248, "ĠInstagram": 1838, "Ġmoderate": 7212, "ĠMaryland": 4788, "Ġrestricted": 9393, "ĠMB": 17025, "ĠChall": 32109, "Ġtob": 45510, "Ġcir": 40441, "ĠOcc": 30994, "ĠEver": 7989, "Ġcollaps": 47007, "INFO": 48050, "=-": 48771, "ĠPict": 17248, "ĠAccount": 16036, "nc": 11326, "Ġought": 12960, "Ġexport": 5376, "Ġdrunk": 10789, "('": 45803, "Ġwise": 11036, "ĠMort": 17457, "necess": 46288, "Ġancest": 48953, "ĠIncre": 46595, "Ġfrequent": 7690, "mir": 16977, "Ġinterpretation": 13794, "Ġdependent": 10597, "Ġcoins": 15750, "ĠBol": 9166, "Video": 17967, "ĠJustin": 3289, "Ġfatal": 6484, "Ġcooking": 6836, "Ġconfusion": 9655, "ipher": 38914, "Ġcustody": 3469, "ĠMorgan": 3040, "omach": 44637, "ĠGovernor": 3383, "Ġrestaurants": 4329, "eling": 10244, "Ġacknowledged": 5055, "Ġther": 26870, "Ġgenes": 14819, "ching": 7968, "Hey": 13368, "Ġtactics": 8893, "ĠMexican": 4938, "Ġvend": 9194, "Ġhes": 36279, "quer": 18756, "Ġnoting": 5196, "ĠCameron": 5628, "Ġtargeting": 5551, "rock": 9144, "Ġcredits": 7751, "Ġemotions": 8597, "Ġrepresentatives": 4844, "news": 2926, "Ġlegislative": 5615, "Ġremoving": 8201, "Ġtweeted": 2858, "ĠCarter": 5306, "ĠFixed": 28092, "Ġforcing": 6437, "Ġspeaker": 5385, "Ġmales": 14705, "ĠVietnam": 5490, "lined": 17422, "Ġconcepts": 14198, "Ġvoices": 6820, "oir": 13878, "ĠTrib": 24311, "Whe": 44413, "ĠJerusalem": 7007, "ĠSant": 8550, "Ġcul": 25069, "Ġlady": 6429, "ĠHawai": 32521, "Ġarts": 5444, "ĠInn": 9548, "ĠMachine": 14969, "ĠEmperor": 31918, "Ġslot": 8534, "gly": 35799, "ĠProcess": 19149, "III": 24457, "Ġathletes": 4131, "ĠTemple": 9660, "ĠRepresent": 27893, "Ġpresc": 39591, "Ġtons": 7741, "Ġgolden": 9030, "Ġpunch": 10064, "ĠGR": 8837, "iverpool": 47683, "Ġenact": 17890, "Ġlobby": 10181, "Ġmos": 25104, "Ġpicking": 6201, "Ġlifetime": 7370, "Ġcognitive": 14526, "Each": 20319, "zo": 6527, "Ġdub": 30180, "Ġconsists": 10726, "oln": 33537, "Ġfestival": 3241, "amous": 30681, "Ġintellig": 37806, "words": 30938, "ĠSmart": 5900, "Ġdele": 32169, "Ġlapt": 48157, "Ġmagical": 13867, "ĠSin": 8356, "bus": 18924, "urities": 31226, "ighth": 19447, "ĠRuby": 19642, "ĠSure": 9136, "olving": 21241, "Ġjun": 12802, "OST": 13556, "Ġimposed": 5713, "Ġastron": 46324, "Ġcorrel": 46764, "ĠNS": 15400, "ĠKit": 12797, "ĠFuture": 7543, "burn": 7554, "Ġimmune": 9161, "ocus": 23189, "Ġcourses": 7484, "ĠString": 26602, "Ġlean": 11257, "Ġghost": 15934, "Ġoutcomes": 7762, "Ġexpense": 5623, "Ġeveryday": 7476, "Ġacceptable": 9796, "Ah": 17986, "Ġequipped": 8895, "Ġorange": 8978, "FR": 5499, "ĠDutch": 5979, "Though": 26223, "ĠRank": 17816, "QU": 15513, "ĠRoberts": 6274, "what": 12196, "rend": 10082, "Ġdisappear": 14529, "Ġspawn": 38176, "ĠLam": 6887, "ois": 12992, "Ġdeserve": 6565, "Ġminimal": 9865, "Ġnervous": 7464, "ĠWould": 11258, "Ġrook": 47200, "ĠVancouver": 5071, "Ġresign": 6749, "shire": 9959, "ĠWorks": 9478, "ĠBuild": 15195, "Ġaffordable": 4555, "ĠGary": 4587, "ĠArena": 5036, "Ġhanging": 7209, "Ġimplications": 8819, "ĠSong": 10264, "Ġmaintaining": 6780, "Ġguards": 8528, "CON": 15299, "Ġderived": 16934, "Ġexecuted": 9390, "Ġtheories": 14831, "Ġquoted": 5304, "ĠAndre": 7553, "oga": 10447, "seless": 34667, "info": 23999, "ĠBelg": 34132, "Ġtears": 6941, "ĠSurv": 37979, "Ġbirthday": 4115, "igious": 36872, "immer": 15912, "Ġspectrum": 8576, "Ġarchitecture": 9437, "Ġrecruit": 9584, "arma": 15277, "Table": 41836, "Ġmonsters": 27056, "ĠGov": 3483, "Ġdestination": 6381, "Ġattractive": 6043, "Ġfoss": 48063, "ĠMoreover": 7905, "Ġpresents": 6822, "THE": 13354, "Ġreply": 10418, "pton": 9216, "Ġcum": 17751, "Ġdelight": 13213, "Ġaffects": 8561, "Ġdonations": 5215, "ĠToy": 18243, "ĠHim": 14003, "MENT": 12613, "Ġovercome": 6647, "itched": 17670, "ĠFantasy": 16232, "ĠHat": 10972, "ĠBeast": 13645, "bott": 33840, "Ġinvestigations": 4941, "Run": 33177, "Ġhunting": 8217, "di": 7506, "fund": 13858, "Ġsessions": 5453, "estyle": 13986, "Ġportray": 19435, "oids": 22926, "Yeah": 14783, "Ġcommunicate": 8469, "Ġcomedy": 5313, "ĠYang": 13262, "Ġbelt": 7494, "ĠMarine": 6144, "Ġpredicted": 6126, "Play": 20780, "Ġimportantly": 7769, "Ġremarkable": 7063, "Ġeliminate": 7677, "David": 8773, "Ġbind": 23379, "VID": 43814, "Ġadvocates": 7039, "ĠGaza": 7914, "imp": 11850, "DB": 10842, "ĠNa": 7300, "ĠSimilar": 17110, "IES": 7536, "Ġcharity": 4440, "vas": 20670, "math": 40051, "Ġâĸ": 27233, "oker": 21783, "ndum": 39104, "Ġcaps": 9686, "ĠHal": 6579, "2000": 17472, "ean": 12001, "Ġfleet": 7620, "Ġrecre": 35244, "Right": 13984, "Ġsleeping": 8416, "ijing": 40049, "kind": 11584, "Ġdesignated": 8034, "Ã¤": 1561, "Ġanimation": 19269, "kee": 27408, "ĠIntrodu": 32687, "Ġ/>": 48709, "Ġdelayed": 5943, "Ġtremend": 48578, "Ġcurious": 10691, "Use": 34447, "Ġlect": 25673, "dam": 15177, "Ġinnovation": 4695, "ĠPoints": 19378, "Ġloading": 16761, "Ġdispute": 4464, "ctic": 20069, "irds": 39977, "ĠBY": 10786, "Ġnurs": 37104, "ĠValue": 11714, "IONS": 11654, "ĠHum": 11669, "Ġtemplate": 27663, "mers": 12822, "Ġappearances": 4961, "ĠEntertainment": 5528, "Ġtranslation": 19850, "Ġsake": 12253, "Ġbeneath": 11352, "Ġinhib": 38512, "Ġeuro": 2287, "abetes": 42603, "Ġstudying": 7739, "ĠMas": 5822, "Ġperceived": 9568, "Ġexamined": 10543, "Ġeager": 7921, "Ġcoaches": 4055, "Ġimper": 21245, "chi": 7930, "Ġproduces": 9108, "\").": 18653, "ĠEveryone": 7632, "Ġmunicip": 40492, "Ġgirlfriend": 6096, "Ġhire": 6198, "ĠVice": 3287, "Ġsuitable": 10686, "opy": 16572, "Ġinequ": 34983, "ĠDuke": 5893, "fish": 9106, "first": 9502, "ĠObs": 23798, "Ġinterior": 6291, "ĠBruce": 5409, "ĠRy": 11861, "Ġanalys": 34273, "Ġconsiderable": 9712, "Ġforecast": 1914, "Ġfert": 46903, "orship": 11887, "ĠDrug": 8006, "ĠALL": 12389, ":\"": 36856, "thur": 42864, "ĠMail": 6313, "Ġballot": 5250, "Ġinstantly": 11764, "ĠChannel": 5331, "Ġpicks": 5916, "Ġ1989": 10206, "Ġtent": 10178, "oli": 6483, "Ġcivilian": 8233, "bling": 12947, "ello": 10913, "bu": 9519, "Ġinch": 10468, "Ġlogo": 6655, "Ġcooperation": 4601, "Ġwalks": 5792, "Ġinvestments": 3227, "Ġimprison": 43210, "ĠFestival": 3502, "ĠKy": 5959, "Ġlegally": 7818, "Ġgri": 35747, "charg": 36068, "Sl": 26724, "Ġthreatening": 5608, "duction": 42705, "flow": 19322, "Ġdismissed": 4768, "ibraries": 47437, "cap": 10906, "ele": 6902, "ĠMcG": 7108, "ĠHarvard": 8412, "ĠConservative": 6855, "ĠCBS": 3710, "png": 40233, "Ġroots": 8121, "ĠHaving": 5365, "umbled": 10434, "ĠFun": 6283, "\\/": 48182, "ĠSearch": 12180, "plex": 26028, "Ġdiscussing": 7345, "Ġcontinu": 27351, "ĠTai": 15643, "ĠWik": 40823, "Free": 18074, "fit": 14307, "Ġrefuse": 10383, "Ġmanaging": 4196, "Ġsynd": 7504, "ipedia": 47410, "walk": 10097, "Ġprofessionals": 5197, "Ġguidance": 3824, "Ġuniversities": 6630, "Ġassemb": 38157, "untu": 45244, "Finally": 35703, "ASE": 24199, "ĠAuto": 8229, "ĠHad": 7301, "Ġanniversary": 4038, "LD": 18048, "ĠDur": 7925, "ĠUltimate": 19687, "ihad": 19284, "product": 20565, "Ġtransit": 7591, "Ġrestore": 7057, "Ġexplaining": 8926, "Ġasset": 3440, "Ġtransferred": 7225, "Ġburst": 10084, "apolis": 20048, "ĠMagazine": 10202, "ĠCra": 22859, "ĠBR": 6823, "gged": 35546, "ĠHE": 12925, "Mich": 40648, "bet": 14600, "ĠLady": 4645, "ylum": 47046, "erves": 22812, "Ġmeets": 6616, "white": 9830, "Log": 23345, "Ġcorresponding": 12337, "Ġinsisted": 5294, "GG": 24592, "Ġsurrounded": 7501, "Ġtens": 7281, "Ġlane": 6625, "Ġcoinc": 24634, "home": 8361, "Ġexisted": 13412, "ected": 21722, "ĠDouble": 12617, "lamm": 43442, "Ġskept": 42386, "exp": 18793, "Ġperception": 10518, "iev": 18421, "ĠBeing": 8374, "oft": 20168, "Ġadopt": 7581, ".:": 12651, "];": 44082, "Windows": 43815, "Ġsatellite": 7595, "ASH": 13246, "Ġinfant": 12099, "description": 42739, "ĠMeanwhile": 2276, "cm": 13753, "oca": 14075, "ĠTreat": 26129, "actor": 24625, "Ġtobacco": 9681, "ĠNorm": 20336, "emption": 41731, "Ġflesh": 18940, "Ġje": 4112, "oop": 18042, "ĠHeaven": 19919, "Ġbeating": 4108, "anim": 25042, "Ġgathering": 5660, "Ġcultiv": 38175, "GO": 14740, "abe": 5084, "ĠJonathan": 4167, "ĠSafety": 5264, "Ġbadly": 7340, "prot": 36299, "Ġchoosing": 8348, "Ġcontacted": 5590, "Ġquit": 6602, "Ġdistur": 46584, "Ġstir": 14351, "Ġtoken": 19233, "Det": 43170, "ĠPa": 5476, "Ġfunctionality": 14749, "003": 33490, "some": 12465, "Ġlimitations": 11948, "Ġmeth": 17677, "build": 23411, "config": 43163, "NT": 16966, "rell": 6384, "blem": 44081, "ĠMom": 10631, "Ġveterans": 4823, "ĠHu": 8003, "Ġtrends": 3926, "arer": 21160, "ĠGiven": 6211, "ĠCaption": 19754, "may": 12488, "AST": 10388, "Ġwondering": 8020, "ĠClark": 4433, "normal": 21113, "Ġseparated": 8254, "Ġdesp": 18690, "stic": 29048, "brew": 30975, "Ġrelating": 8941, "ĠNik": 6575, "ĠFarm": 6584, "Ġenthusi": 49854, "good": 8396, "deb": 25607, "Ġactivist": 6024, "Ġmart": 21195, "Ġexplosion": 6986, "ĠEconomic": 4713, "Link": 17860, "Ġinsight": 8339, "Ġconvenient": 12148, "Ġcounterpart": 10255, "support": 22930, "ĠVirt": 28187, "agen": 10955, "ĠTennessee": 3719, "ĠSimon": 4616, "ĠAward": 3683, "OCK": 13181, "ĠFigure": 17965, "Ġoverseas": 4886, "Ġpride": 7040, "ĠCas": 7233, "note": 32903, "mg": 22984, "Current": 42124, "Ġdisplays": 8612, "content": 10166, "Ġtraveling": 5796, "Ġhospitals": 4815, "ĠFinancial": 2108, "ĠPast": 11182, "Ġdefendant": 9191, "Ġstreaming": 5230, "mble": 46831, "ĠBerlin": 5459, "uki": 16819, "Ġdistribut": 43506, "Ġantib": 42814, "Ġchocolate": 7548, "ĠCastle": 8834, "Ġinterrupt": 22749, "ĠRow": 9224, "Ġconversion": 10012, "Ġbugs": 19230, "ĠRather": 9752, "liest": 27911, "LY": 14079, "ĠJean": 5363, "common": 27278, "akh": 7352, "Ġ130": 8325, "otton": 41921, "ĠDean": 6450, "Ġamendment": 8322, "Ġgameplay": 23841, "ĠWarren": 5432, "oda": 11939, "Ġhighlights": 5586, "Ġirre": 17617, "ĠNATO": 6169, "Ġballs": 6751, "Ġdemanding": 5783, "URE": 12435, "ĠLuke": 5790, "Figure": 40683, "stop": 8287, "onia": 15402, "zone": 13930, "izers": 11574, "ĠWR": 8692, "Ġawarded": 4241, "Ġregulatory": 4099, "ĠHart": 4980, "ĠSN": 13687, "pling": 20418, "Ġsour": 16933, "ĠPixel": 11699, "usive": 30225, "Ġfet": 19208, "ĠSent": 12169, "Ġautomatic": 8408, "Ġfer": 16022, "vernment": 43190, "ĠKhan": 3338, "TON": 8081, "father": 14891, "Ġextraordinary": 7116, "throp": 36983, "ĠPython": 31886, "ĠGPU": 22794, "Ġsexually": 5912, "Ġdesktop": 14050, "itivity": 26358, "ĠAntonio": 4578, "Ġorient": 33379, "Ġears": 12137, "obby": 27825, "ouses": 27195, "vertisements": 31396, "Ġmanufacturers": 4738, "icient": 35056, "minute": 4530, "Ġconviction": 6866, "Ġgarden": 5671, "public": 15110, "Ġsatisfied": 10028, "fold": 12851, "OK": 9335, "Ġinhab": 42226, "ĠThink": 9387, "Ġprogramme": 3020, "Ġstomach": 9377, "Ġcoordin": 31481, "Ġholy": 15410, "Ġthreshold": 11543, "Ġrhet": 44235, "Ġserial": 13603, "Ġemployers": 6334, "ĠEverything": 9567, "rah": 9772, "Ġbother": 15304, "Ġbrands": 3595, "Value": 33977, "ĠTed": 8115, "ĠPlanet": 14839, "Ġpink": 6907, "ĠFurthermore": 9870, "sa": 11146, "PE": 16035, "reck": 24598, "ĠUSD": 6775, "otte": 17034, "Ġ&&": 48200, "Ġlanded": 5932, "gets": 30900, "Ġproducers": 4426, "Ġhealthcare": 3717, "Ġdominant": 7353, "Ġdestro": 48590, "Ġamended": 13522, "chron": 30630, "Ġfits": 10698, "ĠSyd": 38526, "ĠAuthority": 4305, "ATCH": 24321, "Ġfights": 8333, "ĠLLC": 2291, "Ġ---": 21394, "ĠCorp": 1913, "Ġtoxic": 8422, "specific": 14175, "ĠCorn": 10217, "ĠChel": 21626, "Ġtelephone": 7377, "ĠPant": 16240, "Ġmysterious": 12754, "aunch": 28507, "odox": 47345, "media": 5535, "Ġwitnesses": 6057, "agu": 11993, "Ġquestioned": 5249, "ĠBrexit": 2404, "ĠRemember": 9427, "enez": 16411, "Ġendorse": 18839, "iatric": 21303, "ĠIdent": 28763, "Ġridiculous": 10861, "110": 11670, "Ġprayer": 9621, "Ġscientist": 9744, "Ġ1950": 9323, "ĠAqu": 8990, "Ġunderground": 9111, "ĠUFC": 5062, "mare": 34870, "ĠLater": 6811, "wich": 11645, "Ġsubscrib": 47085, "Ġhosts": 4452, "Ġerr": 22379, "Ġgrants": 7752, "antom": 37203, "Ġsummon": 33411, "early": 23099, "ĠClear": 11381, "ĠPrim": 15896, "Ġsuspension": 5436, "Ġguaranteed": 8045, "apper": 11688, "Ġrice": 7666, "ĠSean": 4640, "ĠShin": 15600, "Ġreferendum": 5047, "Ġfled": 5303, "rust": 23705, "Ġ360": 10253, "tery": 13237, "Ġshocked": 6649, "BR": 7202, "ĠOil": 4541, "ĠAllah": 20788, "Ġpartly": 5647, "Ġignor": 45513, "Ġtransmission": 9235, "Ġhomosexual": 34312, "iversal": 49663, "Ġhopefully": 5952, "ãĤ¤": 48611, "Ġlesson": 8567, "Leg": 32102, "Ġ..": 29942, "Yet": 34995, "table": 14595, "appropri": 31374, "rett": 18235, "Ġboards": 6904, "Ġincorrect": 17401, "Ġbacteria": 9436, "aru": 21407, "amac": 45029, "Ġsnap": 6788, ".'\"": 9957, "Ġparad": 42388, "tem": 17950, "heart": 12690, "Ġavailability": 7265, "Ġwisdom": 12320, "Ġ(+": 16998, "Ġpriest": 13174, "ĠÂłĠÂł": 50145, "Open": 25266, "Ġspan": 8968, "Ġparameter": 43797, "Ġconvince": 8838, "Ġ(%)": 32965, "rac": 13249, "Ġfo": 9565, "Ġsafely": 7385, "Ġconverted": 8417, "ĠOlympic": 3336, "Ġreserve": 6114, "Ġhealing": 11759, "ĠMine": 16417, "Max": 19854, "Ġinherent": 17886, "ĠGraham": 4572, "Ġintegrated": 6818, "Dem": 24658, "Ġpipeline": 4116, "Ġapplying": 9889, "Ġembed": 33183, "ĠCharlie": 6127, "Ġcave": 12742, "2008": 27418, "Ġconsensus": 2899, "Ġrewards": 12840, "Pal": 23166, "ĠHTML": 23669, "Ġpopularity": 7347, "looking": 3690, "ĠSword": 39940, "ĠArts": 4455, "')": 27645, "Ġelectron": 35235, "clusions": 41092, "Ġintegrity": 7066, "Ġexclusively": 8992, "Ġgrace": 11564, "Ġtorture": 11809, "Ġburned": 7685, "two": 7109, "Ġ180": 8963, "Produ": 41999, "Ġentreprene": 49661, "raphics": 47665, "Ġgym": 6545, "ricane": 33280, "ĠTam": 7736, "Ġadministrative": 6833, "Ġmanufacturer": 7508, "Ġvel": 23021, "ĠNi": 11568, "Ġisolated": 8067, "ĠMedicine": 8029, "Ġbackup": 8010, "Ġpromoting": 6061, "Ġcommander": 8501, "Ġflee": 11692, "ĠRussell": 4849, "Ġforgotten": 9885, "ĠMissouri": 4630, "Ġresidence": 5238, "mons": 18216, "Ġresemb": 48849, "Ġwand": 33167, "Ġmeaningful": 6667, "PT": 10311, "Ġbol": 24724, "Ġhelic": 47699, "Ġwealthy": 8581, "Ġrifle": 11642, "strong": 8355, "rowing": 23512, "plan": 11181, "asury": 44379, "âĢ¦.": 13361, "Ġexpanding": 5222, "ĠHamilton": 4127, "Ġreceives": 9524, "SI": 6850, "eatures": 49847, "ĠAnim": 38393, "REE": 30009, "Put": 35123, "Ġbriefly": 7478, "rive": 25824, "Ġstimul": 35999, "Ġ``(": 50007, "Ġ__": 27148, "Ġchip": 6638, "Ġhaz": 32468, "Ġprize": 4588, "ĠThings": 6828, "ACE": 15949, "ulin": 27377, "dict": 25867, "oku": 20714, "Ġassociate": 6754, "ockets": 40628, "youtube": 36666, "Story": 39630, "ategory": 49687, "Ġmild": 10439, "ailing": 8459, "ĠYe": 11467, "Orig": 47837, "ĠKa": 7916, "orig": 34188, "Ġpropaganda": 10934, "Ġanonymous": 8466, "Ġstruggled": 3956, "Ġoutrage": 10618, "ATED": 5161, "ĠBeijing": 3332, "rary": 35073, "Ġleather": 9219, "Ġworlds": 14490, "Ġbroader": 5153, "125": 11338, "idal": 11934, "ĠBetter": 11238, "Ġtear": 7366, "Ext": 40884, "Ġproposals": 5327, "Ġiter": 41393, "ĠSquad": 19200, "Ġvolunt": 43763, "mi": 5408, "Did": 20328, "ĠPu": 10282, "pin": 10188, "Ġspeakers": 6864, "Ġborders": 7562, "Ġfigured": 11464, "='": 47579, "Ġsimultaneously": 11586, "aeda": 48690, "Ġcharging": 6489, "Ġurged": 2966, "Ġconj": 21044, "256": 24554, "ĠGordon": 5613, "merce": 48908, "Ġdocumentary": 6717, "Share": 11957, "itol": 20884, "ONE": 16646, "ĠGarden": 6081, "hatt": 16001, "ĠThompson": 4171, "aneous": 33101, "apore": 31066, "Ġtanks": 12039, "Ġlessons": 7079, "track": 16026, "Ġoutstanding": 3973, "Ġvolunteers": 4618, "Ġspray": 11782, "Ġmanagers": 4389, "large": 11802, "Ġcamps": 7376, "Ġartificial": 7350, "ĠRu": 10318, "Ġbags": 5565, "thal": 27534, "Ġcompatible": 16632, "ĠBlade": 24619, "Ġfed": 9789, "Ġargues": 10648, "FI": 14071, "Ġunfair": 8544, "Ġcorn": 7636, "Ġoffset": 6147, "Ġdirections": 9969, "Ġdisappointed": 5779, "ĠConvention": 9127, "Ġviewing": 7603, "ME": 6570, "ocity": 36139, "Ġtowns": 6815, "Ġlayers": 13171, "Ġrolled": 6387, "Ġjumped": 4262, "Ġattribute": 21643, "Ġunnecess": 49922, "incoln": 37654, "Ġsuppose": 19792, "ĠNether": 42642, "cha": 7794, "Ġburied": 8203, "Ġsixth": 2958, "Ben": 17521, "ressing": 9828, "OUR": 14257, "Ġwound": 7725, "Ġcycl": 13030, "Ġmechanisms": 14519, "Ġcongressional": 5744, "ĠElement": 35871, "Ġagreements": 5983, "Ġdecor": 12489, "Ġclosest": 8099, "ĠMit": 12663, "Google": 20441, "}}": 46961, "Ġmixture": 12652, "Ġfluid": 12293, "Sign": 25675, "ĠScholar": 35553, "Ġpist": 32617, "asket": 20997, "abling": 37368, "Ġracing": 4930, "hero": 19034, "riel": 21194, "assy": 27633, "Ġcheaper": 7246, "ben": 5720, "Ġvertical": 12194, "amacare": 35732, "ĠReading": 4913, "gments": 30237, "Ġhelicop": 48764, "Ġsacrifice": 9802, "aya": 5210, "paren": 45208, "VA": 9788, "ĠLes": 6891, "ĠStudio": 11523, "Ġviolations": 6165, "ĠAnna": 7687, "acer": 11937, "é¾": 49874, "ĠRat": 12041, "ĠBeck": 10911, "ĠDick": 8639, "ĠACT": 12928, "Ġcomposition": 15229, "Ġtexture": 18632, "ĠOwn": 19981, "Ġsmartphone": 4368, "ĠNA": 8438, "Ġforb": 34550, "import": 41975, "Ġdefending": 5261, "ilst": 32482, "rer": 8564, "Ġoh": 14223, "ĠJeremy": 5653, "Ġbanking": 3454, "ceptions": 35529, "Ġrespective": 7091, "/.": 11665, "Ġdrinks": 6696, "ĠWi": 9276, "Ġbands": 8577, "ĠLiverpool": 3426, "Ġgrip": 11155, "ĠBuy": 4228, "Ġopenly": 9142, "Ġreviewed": 7123, "pert": 11497, "Ġverify": 12881, "ĠCole": 7139, "ĠWales": 5295, "MO": 8756, "Ġunpre": 48166, "Ġshelter": 5159, "ĠImperial": 16659, "Ġgui": 48125, "ĠDak": 17564, "Ġsuggestions": 9622, "Ġexplicitly": 16369, "Ġslave": 20174, "Ġblockchain": 10607, "Ġcompeting": 5468, "Ġpromising": 6177, "SON": 14452, "Ġsoccer": 4191, "Ġconstitution": 7255, "429": 31877, "Ġdistract": 21943, "ĠUser": 27913, "esides": 46463, "ĠMethod": 16410, "ĠTokyo": 5308, "Ġaccompanied": 7513, "Client": 47952, "sur": 12557, "alog": 31263, "Ġidentification": 10614, "Ġinvasion": 11307, "asma": 42089, "Ġindustries": 4510, "ppers": 14403, "Ġsubtle": 12405, "ĠUnit": 7545, "natural": 25270, "Ġsurvived": 5601, "Ġflaw": 22892, "ĺħ": 48278, "ĠHoll": 11002, "Ġdeficit": 3781, "Ġtutorial": 35950, "ĠChance": 6101, "Ġarguing": 7594, "Ġcontemporary": 8708, "Ġintegration": 7465, "forward": 16135, "Ġtum": 18093, "itis": 10100, "Ġhiding": 9646, "ĠDomin": 13976, "ĠTan": 7650, "ĠBuilding": 6919, "ĠVin": 11737, "Ġspokesperson": 4032, "ĠNotes": 17152, "Ġemerging": 3947, "Ġpreparation": 7094, "Ġprost": 22115, "Ġsuspects": 4089, "Ġautonom": 39930, "Description": 41602, "Ġdealt": 7911, "ĠPear": 33444, "Ġsteady": 5204, "Ġdecreased": 8065, "Ġsovere": 48648, "ĠClin": 35998, "Ġgradually": 9097, "orses": 34225, "ĠWAR": 22543, "Serv": 44175, "ãĤ¢": 49017, "hr": 5039, "Ġdirty": 11216, "ĠBarn": 8514, "ĠBC": 9543, "Ġdil": 14632, "Ġcalendar": 7127, "Ġcompliance": 6265, "Ġchamber": 8421, "bb": 14141, "Ġpassenger": 4408, "ateful": 39264, "ĠTitle": 13497, "ĠSydney": 4290, "ĠGot": 8432, "Ġdarkness": 15073, "Ġdefect": 17584, "Ġpacked": 6515, "assion": 22947, "Ġgods": 25779, "Ġharsh": 9776, "ICK": 11839, "leans": 45402, "Ġalgorithm": 17194, "Ġoxygen": 11747, "Ġvisits": 5695, "Ġblade": 24611, "Ġkilomet": 22823, "ĠKentucky": 4449, "Ġkiller": 7844, "Pack": 31331, "enny": 11867, "Ġdivine": 26280, "Ġnomination": 5757, "being": 9442, "Ġengines": 8186, "Ġcats": 10017, "Ġbuffer": 21944, "ĠPhill": 38865, "Ġtraff": 30246, "AGE": 14426, "Ġtongue": 15686, "Ġradiation": 13785, "erer": 7160, "mem": 25683, "ĠExplicit": 47972, "é¾į": 49873, "Ġcouples": 8571, "Ġphysics": 17759, "ĠMcK": 9859, "Ġpolitically": 7557, "awks": 33550, "ĠBloom": 14394, "Ġworship": 13405, "eger": 44091, "uter": 13080, "ĠFO": 12866, "Ġmathemat": 49633, "Ġsentenced": 4018, "Ġdisk": 21675, "ĠMarg": 7572, "Ġ/*": 48565, "PI": 11337, "Ġoptional": 17679, "Ġbabies": 7272, "Ġseeds": 9775, "ĠScottish": 5411, "Ġthy": 32667, "]]": 48392, "ĠHitler": 16423, "PH": 7561, "ngth": 49572, "Ġrecovered": 4609, "inge": 18174, "Ġpowder": 10477, "Ġlips": 14638, "Ġdesigner": 6004, "Ġdisorders": 12876, "Ġcourage": 9699, "Ġchaos": 7724, "\"},{\"": 49738, "Ġcarrier": 6994, "bably": 46363, "High": 18522, "ĠRT": 10541, "esity": 46461, "len": 8476, "Ġroutes": 7145, "uating": 17071, "Fil": 36361, "NOT": 37049, "wall": 12764, "sburgh": 39710, "Ġengaging": 7580, "ĠJavaScript": 18434, "orer": 26834, "lihood": 45286, "Ġunions": 7811, "ĠFederation": 6692, "ĠTesla": 4919, "Ġcompletion": 5687, "ĠTa": 9002, "Ġprivilege": 9951, "ĠOrange": 5726, "Ġneur": 41213, "parency": 24470, "Ġbones": 12396, "Ġtitled": 6593, "Ġprosecutors": 3659, "ĠME": 12341, "Ġengineer": 8083, "ĠUniverse": 15384, "ĠHig": 19664, "nie": 7468, "oard": 37021, "Ġhearts": 7754, "ĠGre": 6879, "ussion": 40824, "Ġministry": 3158, "Ġpenet": 43463, "ĠNut": 14208, "ĠOw": 14136, "ĠXP": 30065, "instein": 40335, "Ġbulk": 8533, "System": 36383, "icism": 24966, "ĠMarketable": 49182, "Ġpreval": 48299, "Ġposter": 11566, "Ġattending": 5190, "urable": 24517, "Ġlicensed": 10059, "ĠGh": 5977, "etry": 21262, "ĠTradable": 49717, "Ġblast": 7814, "à¤": 14238, "ĠTitan": 23308, "elled": 16349, "die": 18554, "Have": 17781, "ĠFlame": 40107, "Ġprofound": 13960, "Ġparticipating": 6051, "Ġanime": 28805, "ĠEss": 14777, "Ġspecify": 17151, "Ġregarded": 11394, "ĠSpell": 38808, "Ġsons": 7250, "owned": 4447, "Ġmerc": 22415, "Ġexperimental": 14073, "lando": 29028, "hs": 15354, "ĠDungeon": 46611, "inos": 10968, "Ġcomply": 8096, "ĠSystems": 5778, "arth": 16880, "Ġseized": 5942, "local": 18076, "ĠGirls": 7707, "udo": 23259, "oned": 11469, "ĠFle": 12602, "Ġconstructed": 11236, "Ġhosted": 4457, "Ġscared": 8265, "actic": 28201, "ĠIslands": 8594, "ĠMORE": 3001, "Ġbless": 22212, "Ġblocking": 8890, "Ġchips": 8053, "Ġevac": 13723, "Ps": 13438, "Ġcorporation": 12772, "Ġox": 33665, "Ġlighting": 7526, "Ġneighbors": 6611, "ĠUb": 31817, "aro": 5191, "Ġbeef": 6829, "ĠUber": 4519, "Facebook": 18064, "armed": 17651, "itate": 12624, "ĠRating": 8998, "ĠQuick": 13287, "Ġoccupied": 9533, "Ġaims": 5026, "ĠAdditionally": 6903, "ĠInterest": 11748, "Ġdramatically": 8617, "Ġheal": 14384, "Ġpainting": 7674, "Ġengineers": 8610, "MM": 16261, "ĠMust": 8495, "Ġquantity": 16363, "Paul": 12083, "Ġearnings": 1107, "ĠPosts": 23227, "stra": 10750, "ãĥ¼ãĥ": 48943, "Ġstance": 6663, "Ġdropping": 6614, "script": 32761, "Ġdressed": 7001, "Make": 18114, "Ġjustify": 11071, "ĠLtd": 2043, "Ġprompted": 5256, "Ġscrut": 48504, "Ġspeeds": 9706, "ĠGiants": 4608, "omer": 11032, "ĠEditor": 8627, "Ġdescribing": 9072, "ĠLie": 17974, "mented": 19601, "Ġnowhere": 9261, "ocaly": 47582, "Ġinstruction": 15741, "fortable": 38093, "Ġentities": 8866, "Ġcm": 25434, "ĠNatural": 7278, "Ġinquiry": 6422, "Ġpressed": 11224, "izont": 48804, "forced": 25258, "Ġraises": 7700, "ĠNetflix": 3909, "ĠSide": 9120, "Ġouter": 15705, "Ġamongst": 9783, "ims": 13776, "owski": 7897, "Ġclimb": 8264, "never": 20042, "Ġcombine": 9637, "ding": 11303, "Ġcompr": 43045, "Ġsignificance": 11382, "Ġremembered": 8715, "ĠNevada": 5077, "ĠTel": 5477, "ĠScar": 16400, "ĠWarriors": 4223, "ĠJane": 7343, "Ġcoup": 9334, "bas": 15609, "Ġterminal": 9632, ",-": 45693, "OH": 11979, "Ġtension": 8556, "Ġwings": 11954, "ĠMyster": 43888, "ï¿½ï¿½ï¿½ï¿½": 48697, "ĠUnlike": 8280, "valid": 42679, "vironments": 47100, "ĠAli": 4110, "Ġnaked": 12343, "books": 17788, "ĠMun": 6760, "ĠGulf": 4602, "Ġdensity": 16522, "Ġdimin": 29063, "Ġdesperate": 7764, "Ġpresidency": 5662, "Ġ1986": 11265, "hy": 11108, "IND": 13796, "Ġunlock": 14852, "imens": 43611, "Ġhandled": 7521, "ĠEb": 12608, "Ġdisappeared": 9939, "Ġgenre": 11581, "Ġ1988": 11151, "Ġdetermination": 8964, "Stream": 36757, "iko": 9691, "apters": 48160, "Ġacknowledge": 9630, "Jan": 14273, "Ġcapitalism": 21314, "Pat": 18276, "Ġ2020": 2760, "Ġpainful": 8661, "Ġcurve": 9158, "Ġbombs": 10834, "storm": 10868, "ĠMetal": 14733, "encer": 24077, "ĠFig": 20001, "ĠAaron": 4802, "anches": 23833, "Ġinspiration": 7125, "Ġexhaust": 19379, "tains": 30759, "ashi": 11786, "Ġdescript": 47265, "Ġritual": 19100, "ĠChelsea": 3098, "Ġpromotion": 6174, "ĠHung": 29604, "ĠWard": 5986, "iva": 7222, "ĠET": 4799, "Ġtoss": 13027, "allow": 25487, "ĠFrancis": 5075, "Dep": 29774, "Ġhappiness": 11098, "ĠGlass": 10352, "Ġbeta": 6212, "Ġstrengthen": 5920, "NE": 9009, "oa": 8271, "Ġbuttons": 14893, "ĠMurray": 4479, "Ġkicked": 5836, "Quest": 41862, "ĠTalk": 10391, "ĠSeveral": 3646, "ĠZero": 15472, "Ġdrone": 8678, "ulk": 16260, "Ġcam": 11021, "ĠMobile": 6698, "Ġpreventing": 9107, "Ġretro": 11299, "ĠAx": 14249, "Ġcruel": 15939, "Ġfloat": 15754, ".),": 12345, "Ġfiling": 3386, "ĠGrant": 5980, "ĠBor": 7943, "Ġrib": 14966, "Ġchampionship": 2836, "ĠMerc": 13873, "Ġstyles": 11019, "Ġcake": 8492, "Ġbuilds": 12095, "ĠSelf": 12156, "iox": 44882, "Ġepic": 9066, "oyd": 27559, "Bel": 19877, "ĠStew": 28154, ".(": 21154, "ahu": 17421, "ĠBeyond": 10261, "Ġouts": 10229, "Ġsolo": 5540, "ĠTree": 11077, "Ġpreserve": 8415, "Ġtub": 17465, "ARE": 7982, "roc": 18375, "ĠImpro": 27455, "ĠWright": 5825, "Ġbund": 37035, "Ġtraged": 47189, "Ġoccasional": 12577, "bian": 41917, "Second": 32703, "rons": 26573, "Ġinteractions": 11324, "formed": 10312, "sing": 26058, "Ġowns": 1831, "Ġhockey": 5006, "General": 9344, "Ġlogical": 16437, "Ġexpend": 40300, "Ġescal": 27196, "ĠGriff": 26736, "ĠCrown": 5748, "ĠReserve": 3965, "Ġstopping": 8197, "Ġexcuse": 10525, "second": 10815, "Ġoperated": 7187, "Ġreaches": 11541, "ĠMalays": 35312, "Ġpollution": 6631, "ĠBrooklyn": 6314, "Ġdelete": 17462, "Ġhash": 29524, "Block": 38866, "aha": 11695, "âĢ³": 13090, "Ġshorter": 10941, "piece": 10449, "></": 49526, "Ġhorm": 48754, "ĠWat": 8626, "ĠBreak": 13211, "Ġprohibited": 9986, "Ġintensity": 10603, "ĠAlan": 6284, "Ġliability": 9416, "?!": 17516, "anded": 13833, "Ġneighbour": 14915, "ĠCollection": 15937, "Ġfires": 6155, "Ġrevolutionary": 16097, "fly": 19252, "ĠOrleans": 4942, "White": 15725, "ĠWrit": 44740, "ĠDawn": 13199, "Ġsettle": 6307, "Ġexecute": 11189, "BM": 13386, "Ġspokeswoman": 3582, "Ġlifestyle": 6339, "Ġclicking": 10739, "ĠKill": 14212, "ĠLiberal": 7612, "ĠNazi": 12281, "Ġtrailer": 5611, "Ġmountains": 9787, "Ġdamn": 16490, "zes": 12519, "pes": 29270, "Ġpressing": 10275, "Ġbail": 4852, "ĠOrganization": 6481, "Ġpir": 36287, "Ġthirty": 16984, "Ġelectrical": 8980, "Ġ115": 12312, "ĠPoly": 10415, "ĠRap": 16469, "ĠStrike": 24044, "ĠCann": 23291, "Ġdemanded": 6075, "Ġbacking": 6027, "default": 43234, "speed": 8619, "ĠLegisl": 32717, "Ġmothers": 8826, "ĠBody": 13048, "Ġvariation": 21875, "cedented": 34323, "powered": 10711, "leading": 10140, "Never": 22491, "Ġgrave": 9753, "ĠAnti": 9511, "AW": 10751, "Ġinterviewed": 7477, "ĠGab": 9341, "ĠFat": 11289, "Ġrookie": 4534, "uu": 26310, "Ġdepos": 27649, "ixon": 28427, "Ġampl": 29455, "retion": 32695, "ĠHeat": 7772, "Ġpeaceful": 7053, "SM": 15153, "ieve": 16637, "Ġdiver": 13105, "ĠVictoria": 4769, "Ġmic": 14926, "pdf": 31494, "Ġstating": 9052, "Ġlung": 10665, "Ġcriticized": 5888, "Ġvaccine": 9937, "ĠLoading": 11414, "urse": 33901, "Take": 21031, "ĠFran": 13439, "ĠSold": 26456, "ĠRobin": 8472, "Ġdetected": 12333, "ĠScript": 32175, "Ġadjusted": 5493, "Ġsenator": 6704, "Ġopposing": 9375, "Error": 30192, "Count": 23329, "Ġconflicts": 9549, "Ġow": 37270, "ĠArgent": 19041, "Ġmatching": 8150, "hh": 36646, "ĠTrek": 20351, "starter": 37348, "\"),": 16844, "ĠAF": 17491, "oder": 15362, "xxxx": 47596, "ĠAlt": 7330, "acre": 12013, "ĠPick": 8184, "ĠSolar": 11400, "ĠDal": 7853, "Oct": 19144, "ĠBatt": 20110, "Ġsrc": 47215, "Ġengagement": 4921, "Ġexecutives": 4585, "Ġliberty": 17574, "java": 43830, "Ġtalented": 5918, "igenous": 39695, "Ġconsecut": 41197, ".....": 38917, "Info": 39863, "Ġhorrible": 11385, "Ġsurprisingly": 10262, "feed": 18790, "icating": 13659, "ĠLED": 10918, "Ġfemales": 16856, "Station": 41925, "eller": 15098, "ĠOakland": 5147, "Ġmechanical": 12418, "iology": 17129, "ĠVar": 9676, "Ġrobust": 6295, "ettings": 48496, "otta": 16037, "Ġtheoret": 48224, "Ġretain": 7615, "kward": 41609, "Ġda": 2955, "Ġdeployed": 6400, "del": 10273, "ĠAndy": 5095, "Ġsubscribe": 11222, "web": 10534, "Ġna": 2750, "ĠMichel": 11026, "Ġpartially": 8531, "ĠComey": 5829, "Ġcrown": 6420, "ĠMaj": 9894, "ĠBlu": 18367, "rator": 24362, "Day": 10781, "INT": 17831, "Ġdocumented": 12404, "ĠGDP": 6250, "gi": 15696, "chell": 25365, "Ġbrutal": 8513, "ĠBab": 6753, "stration": 35431, "Ġtheft": 5751, "Ġtube": 16875, "@@": 49453, "Ġquery": 25860, "ĠLincoln": 5839, "Ġpublishing": 10467, "Ġwore": 5328, "orical": 30340, "Ġric": 24421, "Ġnotable": 8091, "Ġsubsequently": 8960, "nex": 32918, "Ġobserve": 14095, "ĠBoe": 26682, "Ġcodes": 14284, "main": 17894, "WH": 26369, "ĠSL": 10962, "Ġresidential": 4860, "avan": 10937, "Ġmas": 11705, "arest": 18759, "adeon": 49042, "OUT": 29891, "Ġsophistic": 48802, "ante": 5285, "Ġcens": 26489, "Ġ**": 13540, "Ġmortality": 15812, "Ġyours": 14314, "Ġoccasions": 7657, "Ġrecalled": 4841, "ĠDriver": 16870, "Ġvocal": 7578, "Ġbathroom": 8080, "Ġshops": 6464, "Ġcollaboration": 4918, "ĠObamacare": 9138, "ĠCell": 13696, "Char": 42379, "Super": 16713, "Cre": 40008, "Ġtends": 11818, "Ġtorn": 9007, "Ġeconomics": 10492, "avery": 42830, "ĠRaid": 36853, "ĠSem": 11202, "Ġshoulders": 10762, "Ġexpecting": 4804, "Ġexamination": 9027, "ename": 45838, "ĠUI": 27182, "iability": 34337, "olas": 17084, "ĠAmb": 8387, "ĠDra": 22038, "Ġmidfield": 9979, "ĠIC": 8242, "Ġlayout": 18472, "Ġfloating": 11291, "fi": 9169, "itative": 26709, "Ġtremendous": 6839, "ĠÐ": 18697, "Ġabund": 47674, "Work": 21461, "ĠLightning": 14090, "Ġsimilarly": 11401, "Ġconservatives": 9930, "Ġpray": 10745, "BE": 8827, "izarre": 40963, "Ġtempt": 34919, "Ġemphasis": 9723, "ĠMetro": 5768, "Ġfishing": 5651, "Ġmarry": 12908, "neg": 23156, "ĠStudy": 13019, "Ġreck": 21493, "Ġdispos": 22031, "oning": 11626, "bsite": 46462, "Ġsuspic": 48864, "Ġmerch": 29489, "ĠGib": 17583, "ĠDescription": 33425, "ĠDVD": 19888, "whe": 28884, "ĠYemen": 6519, "Ġenvironments": 11534, "ooting": 23894, "ĠModern": 13021, "eu": 25171, "Ġreflects": 6771, "Ġhoney": 10658, "Ġanalyst": 2066, "Ġgut": 8731, "dec": 11127, "Action": 36082, "Ġhouseholds": 8195, "Ġster": 43472, "Ġtemple": 13271, "Ġreforms": 4907, "Ġfavourite": 5548, "Ġdeadline": 4267, "ĠLE": 10611, "Three": 15622, "ĠWithin": 9842, "Aug": 20415, "Ġnights": 7011, "elta": 25412, "Ġinvalid": 21567, "ĠExchange": 3080, "ĠDelhi": 3534, "when": 14746, "income": 7214, "ĠðŁ": 8103, "Ġwireless": 6955, "scribe": 36037, "ista": 6377, "Ġhostile": 11928, "Ġally": 7564, "Ġgig": 10196, "Ġoutlets": 6639, "ĠDor": 7318, "EMENT": 20944, "Ġash": 14016, "Ġabstract": 20372, "ORD": 11200, "ĠMotor": 5512, "Ġadviser": 4988, "istle": 22855, "Ġbases": 7531, "Ġcourtesy": 7676, "Ġcrossing": 6724, "Ġcleared": 6049, "Ġrefugee": 7220, "cosystem": 42451, "Ġthrows": 6989, "fun": 18317, "bourne": 17063, "days": 7033, "Ġdisagree": 11967, "ĠNative": 10442, "Ġreflected": 7680, "ĠFast": 9612, "ĠYellow": 14708, "ĠSingapore": 2920, "ĠRaven": 22546, "Ġembrace": 7962, "ĠKu": 9609, "ĠChen": 10136, "ĠEarly": 8451, "Ġappointment": 4916, "ĠMini": 14912, "itement": 33144, "Ġplacing": 9405, "Ġbicy": 44821, "SR": 17973, "Ġwhis": 43674, "SU": 10466, "Ġinvestigated": 6807, "Ġphotographs": 9065, "github": 48340, "ĠBeat": 10841, "ĠRing": 11533, "ighed": 35046, "iar": 12202, "Ġevolved": 12236, "erald": 26755, "Ġdun": 30261, "Ġhub": 6756, "IAL": 11694, "Ġencouraging": 5513, "ĠPrint": 6883, "ĠDays": 10046, "Ġprosecution": 6914, "Ġpants": 9304, "azy": 24832, "live": 16244, "Ġfossil": 11422, "ĠJu": 8873, "Ġrocks": 10889, "udge": 14328, "ĠRace": 8989, "Ġgreet": 17395, "bie": 12750, "Ġfilling": 8794, "ĠLen": 12053, "Ġdiabetes": 7704, "Ġfirearms": 9855, "uming": 20016, "enezuel": 41025, "ĠBB": 8112,
[...]
